{"!":0,"\"":1,"#":2,"$":3,"%":4,"&":5,"'":6,"(":7,")":8,"*":9,"+":10,",":11,"-":12,".":13,"/":14,"0":15,"1":16,"2":17,"3":18,"4":19,"5":20,"6":21,"7":22,"8":23,"9":24,":":25,";":26,"<":27,"=":28,">":29,"?":30,"@":31,"A":32,"B":33,"C":34,"D":35,"E":36,"F":37,"G":38,"H":39,"I":40,"J":41,"K":42,"L":43,"M":44,"N":45,"O":46,"P":47,"Q":48,"R":49,"S":50,"T":51,"U":52,"V":53,"W":54,"X":55,"Y":56,"Z":57,"[":58,"\\":59,"]":60,"^":61,"_":62,"`":63,"a":64,"b":65,"c":66,"d":67,"e":68,"f":69,"g":70,"h":71,"i":72,"j":73,"k":74,"l":75,"m":76,"n":77,"o":78,"p":79,"q":80,"r":81,"s":82,"t":83,"u":84,"v":85,"w":86,"x":87,"y":88,"z":89,"{":90,"|":91,"}":92,"~":93,"¡":94,"¢":95,"£":96,"¤":97,"¥":98,"¦":99,"§":100,"¨":101,"©":102,"ª":103,"«":104,"¬":105,"®":106,"¯":107,"°":108,"±":109,"²":110,"³":111,"´":112,"µ":113,"¶":114,"·":115,"¸":116,"¹":117,"º":118,"»":119,"¼":120,"½":121,"¾":122,"¿":123,"À":124,"Á":125,"Â":126,"Ã":127,"Ä":128,"Å":129,"Æ":130,"Ç":131,"È":132,"É":133,"Ê":134,"Ë":135,"Ì":136,"Í":137,"Î":138,"Ï":139,"Ð":140,"Ñ":141,"Ò":142,"Ó":143,"Ô":144,"Õ":145,"Ö":146,"×":147,"Ø":148,"Ù":149,"Ú":150,"Û":151,"Ü":152,"Ý":153,"Þ":154,"ß":155,"à":156,"á":157,"â":158,"ã":159,"ä":160,"å":161,"æ":162,"ç":163,"è":164,"é":165,"ê":166,"ë":167,"ì":168,"í":169,"î":170,"ï":171,"ð":172,"ñ":173,"ò":174,"ó":175,"ô":176,"õ":177,"ö":178,"÷":179,"ø":180,"ù":181,"ú":182,"û":183,"ü":184,"ý":185,"þ":186,"ÿ":187,"Ā":188,"ā":189,"Ă":190,"ă":191,"Ą":192,"ą":193,"Ć":194,"ć":195,"Ĉ":196,"ĉ":197,"Ċ":198,"ċ":199,"Č":200,"č":201,"Ď":202,"ď":203,"Đ":204,"đ":205,"Ē":206,"ē":207,"Ĕ":208,"ĕ":209,"Ė":210,"ė":211,"Ę":212,"ę":213,"Ě":214,"ě":215,"Ĝ":216,"ĝ":217,"Ğ":218,"ğ":219,"Ġ":220,"ġ":221,"Ģ":222,"ģ":223,"Ĥ":224,"ĥ":225,"Ħ":226,"ħ":227,"Ĩ":228,"ĩ":229,"Ī":230,"ī":231,"Ĭ":232,"ĭ":233,"Į":234,"į":235,"İ":236,"ı":237,"Ĳ":238,"ĳ":239,"Ĵ":240,"ĵ":241,"Ķ":242,"ķ":243,"ĸ":244,"Ĺ":245,"ĺ":246,"Ļ":247,"ļ":248,"Ľ":249,"ľ":250,"Ŀ":251,"ŀ":252,"Ł":253,"ł":254,"Ń":255,"ĠĠ":256,"ĠĠĠĠ":257,"ĠĠĠĠĠĠĠĠ":258,"ĉĉ":259,"=\"":260,"</":261,"ĠĠĠĠĠĠĠĠĠĠĠĠĠĠĠĠ":262,"la":263,"\">":264,"on":265,"re":266,"di":267,"Ġc":268,"ss":269,"li":270,"te":271,"le":272,"Ġ<":273,"ti":274,"ĉĉĉĉ":275,"lass":276,"Ġclass":277,"an":278,"div":279,"in":280,"er":281,"ar":282,"ht":283,"en":284,"or":285,"sp":286,"st":287,"co":288,"Ġh":289,"al":290,"id":291,"ref":292,"ta":293,"Ġhref":294,"Ġ</":295,"th":296,"ge":297,"//":298,"></":299,"><":300,"me":301,"tp":302,"ĠĠĠĠĠĠĠĠĠĠĠĠĠĠĠĠĠĠĠĠĠĠĠĠĠĠĠĠĠĠĠĠ":303,"tion":304,"http":305,"ro":306,"span":307,"ri":308,"://":309,"ww":310,"Ġĉĉĉĉ":311,"se":312,"im":313,"de":314,"com":315,"lo":316,"ad":317,"to":318,"00":319,"da":320,"un":321,"ac":322,"\"><":323,"sc":324,"ne":325,"20":326,"Ġs":327,"ĠĠĠĠĠĠĠĠĠĠĠĠ":328,"ent":329,"con":330,"age":331,"Ġt":332,"ch":333,"\":":334,"pe":335,"Ġĉĉ":336,"ur":337,"px":338,"na":339,"ig":340,"--":341,"ite":342,"tle":343,"nk":344,"ng":345,"at":346,");":347,"data":348,"ra":349,"pt":350,"=\"/":351,"title":352,"is":353,"bo":354,"16":355,",\"":356,"op":357,"el":358,"ter":359,"ul":360,"www":361,"scri":362,"ut":363,"img":364,"ce":365,"Ġdata":366,"ck":367,"um":368,"he":369,"ue":370,"script":371,"get":372,"it":373,"ho":374,"ma":375,"Ġf":376,"rc":377,"ype":378,"ca":379,"Ġĉ":380,"nt":381,"do":382,"us":383,"xt":384,"mo":385,"\"></":386,"tr":387,"='":388,"il":389,"item":390,"ie":391,"Ø§":392,"Ġv":393,"wid":394,"ol":395,"yle":396,"ction":397,"Ġtitle":398,"ml":399,"Ġp":400,"10":401,"style":402,"Ġid":403,"am":404,"ct":405,"Ġb":406,"image":407,"Ġĉĉĉĉĉĉĉĉ":408,"Ġsrc":409,"Ġ.":410,"ing":411,"no":412,"ĠĠĠ":413,"qu":414,"\",\"":415,"text":416,"ve":417,"width":418,"\":\"":419,"si":420,"ub":421,"tent":422,"html":423,"der":424,"Ġa":425,"Ġ/":426,"arget":427,"if":428,"oo":429,"ight":430,"14":431,"15":432,"ĠĠĠĠĠĠĠĠĠĠĠĠĠĠĠĠĠĠĠĠ":433,"sh":434,"link":435,"po":436,"tic":437,"Ġ\"":438,"Ġ{":439,"ack":440,"12":441,"ver":442,"Ġtarget":443,"Ġ0":444,"=\"_":445,"bla":446,"Ġĉĉĉ":447,"pro":448,"men":449,"up":450,"ws":451,"jp":452,"Ġ'":453,"fi":454,"Ġ=":455,"blank":456,"option":457,"2016":458,"col":459,"Ġĉĉĉĉĉĉ":460,"ot":461,"ãģ":462,"top":463,"Ġal":464,"ĠĠĠĠĠĠĠĠĠĠĠĠĠĠĠĠĠĠĠĠĠĠĠĠĠĠĠĠĠĠĠĠĠĠĠĠĠĠĠĠĠĠĠĠĠĠĠĠĠĠĠĠĠĠĠĠĠĠĠĠĠĠĠĠ":465,"as":466,"av":467,"ãĥ":468,"Ġ}":469,"es":470,"name":471,"et":472,"',":473,"for":474,"25":475,"){":476,"td":477,"Ġ1":478,"unction":479,"Ġstyle":480,"ĠS":481,"Ġre":482,"jpg":483,"and":484,"lay":485,"mar":486,"ĠĠĠĠĠĠĠĠĠĠĠĠĠĠĠĠĠĠĠĠĠĠĠĠ":487,"AA":488,"alue":489,"13":490,"ment":491,"__":492,"menu":493,"ĠÐ":494,"Ġalt":495,"gin":496,"this":497,"ft":498,"we":499,"Ġtype":500,"icon":501,"js":502,"!--":503,"ide":504,"\\/":505,"05":506,"22":507,"('":508,"du":509,"pp":510,"content":511,"Ð¾":512,"Ø±":513,"ãĤ":514,"one":515,"Ð°":516,"line":517,"ga":518,"are":519,"Ġ(":520,"ĠC":521,"function":522,"ic":523,"ont":524,"18":525,"ort":526,"ff":527,"ab":528,"\",":529,"gro":530,"the":531,"type":532,"24":533,"om":534,"all":535,"(\"":536,"Ðµ":537,"&#":538,"Ġĉĉĉĉĉ":539,"quot":540,"und":541,"nav":542,"17":543,"19":544,"Ø§Ù":545,"Ġin":546,"https":547,"/\"":548,"ed":549,"ate":550,"ĠĠĠĠĠĠĠĠĠĠĠĠĠĠĠĠĠĠĠĠĠĠĠĠĠĠĠĠ":551,"-->":552,"ĠØ":553,"ory":554,"ding":555,"==":556,"fo":557,"Ġvalue":558,"Ġ-":559,"ĉĉĉĉĉĉĉĉ":560,"ĠA":561,").":562,"Ġwidth":563,"br":564,"amp":565,"order":566,"box":567,"ÛĮ":568,"Ð¸":569,"30":570,"ĠP":571,"ĠT":572,"ght":573,"Ġhe":574,"Ġ/>":575,"left":576,"lick":577,"Ġon":578,"39":579,"ci":580,"so":581,"ze":582,"go":583,"ĠM":584,"Ġo":585,"04":586,"à¸":587,"dow":588,"head":589,"images":590,"Ġw":591,"blo":592,"fa":593,"news":594,"Ġ#":595,"64":596,"gb":597,"ava":598,"ph":599,"ton":600,"em":601,"ÙĪ":602,"28":603,"ĠĠĠĠĠĠ":604,"29":605,"arch":606,"Ġheight":607,"ure":608,"urn":609,"var":610,"27":611,"âĢ":612,"ÑĤ":613,"dex":614,"list":615,"ground":616,"Ġ>":617,"load":618,"ackground":619,"vie":620,"33":621,"ke":622,"ticle":623,"ner":624,"gle":625,"),":626,"ir":627,"java":628,"medi":629,"ia":630,"pa":631,"Ġe":632,"11":633,"set":634,"Ùħ":635,"javascript":636,"&&":637,"utton":638,"26":639,"99":640,"cate":641,"net":642,"ÑĢ":643,"str":644,"ĠB":645,"vent":646,"form":647,"Ð½":648,"umb":649,"/\">":650,"In":651,"gory":652,"ok":653,"sub":654,"right":655,"Ġrel":656,"article":657,"tab":658,"turn":659,"art":660,"page":661,"},":662,"den":663,"au":664,"fe":665,"color":666,"be":667,"index":668,"35":669,"34":670,"ali":671,"row":672,"splay":673,"png":674,"margin":675,"Ġ<!--":676,"ong":677,"ou":678,"Ñģ":679,"ÃĲ":680,"click":681,"bi":682,"url":683,"put":684,"=\"\"":685,"display":686,"port":687,"Ġ-->":688,"lab":689,"Ġname":690,"nb":691,"ument":692,"sta":693,"36":694,"ĠD":695,"Ø¯":696,"50":697,"Re":698,"'>":699,"ser":700,"tag":701,"80":702,"button":703,"Ġde":704,"Ġcon":705,"vi":706,"doc":707,"{\"":708,"ĉĉĉ":709,"Ġĉĉĉĉĉĉĉ":710,"per":711,"sm":712,"css":713,"Ġm":714,"Øª":715,"ideo":716,"web":717,"post":718,"les":719,"ÙĨ":720,"37":721,"100":722,"ry":723,"}.":724,"ĠF":725,"font":726,"new":727,"dd":728,"ty":729,"ull":730,"return":731,"Ð¾Ð":732,"ĠĠĠĠĠĠĠĠĠĠ":733,"gn":734,"ĠL":735,"height":736,"06":737,"coun":738,"ame":739,"oogle":740,"Ġn":741,"block":742,"search":743,"Ġcol":744,"category":745,"Ġto":746,"38":747,"label":748,"ly":749,"media":750,"meta":751,"adding":752,"home":753,"Ġthe":754,"ard":755,"header":756,"nbsp":757,"document":758,"');":759,"ting":760,"ay":761,"ag":762,"idden":763,"duct":764,"time":765,"ation":766,"66":767,"cd":768,"tain":769,"min":770,"app":771,"dy":772,"Ġg":773,"à¤":774,"57":775,"ĠE":776,"sition":777,"ow":778,"main":779,"pre":780,"||":781,"size":782,"low":783,"thumb":784,"ÙĦ":785,"84":786,"lear":787,"ä¸":788,"Ġ2":789,"ion":790,"ĠĠĠĠĠ":791,"foo":792,"()":793,"Ùĩ":794,"ob":795,"lement":796,"ĠH":797,"ult":798,"nd":799,"ĠG":800,"07":801,"Ġand":802,"background":803,"\\\"":804,"pri":805,"85":806,"_.":807,"cat":808,"ace":809,"alse":810,"ãĢ":811,"ÙĬ":812,"ers":813,"indow":814,"ex":815,"gra":816,"Ġvar":817,"date":818,"enter":819,"Ġy":820,"ans":821,"end":822,"wra":823,"..":824,"input":825,"out":826,"pla":827,"44":828,"ms":829,"65":830,"ity":831,"je":832,"video":833,"wor":834,"88":835,"bar":836,"Ø§Ø":837,"site":838,"strong":839,"tom":840,"ant":841,"sk":842,"\"/":843,"Id":844,"Ø§ÙĦ":845,"view":846,"tn":847,"eld":848,"how":849,"Ġfor":850,"bot":851,"90":852,"cation":853,"tainer":854,"ï¼":855,"Ġitem":856,"os":857,"75":858,"Ġ&":859,"Ġcontent":860,"book":861,"Ġd":862,"our":863,"Ð»":864,"border":865,"php":866,"Name":867,"src":868,"lu":869,"ba":870,"ĠW":871,"tive":872,"-.":873,")}":874,"wp":875,"Ġr":876,"Ġborder":877,"40":878,"();":879,";\">":880,"ak":881,"tem":882,"pi":883,"product":884,"],":885,"hidden":886,"69":887,"ĠN":888,"ru":889,"ĠĠĠĠĠĠĠĠĠĠĠĠĠĠĠĠĠĠĠĠĠĠĠĠĠĠĠĠĠĠĠĠĠĠĠĠ":890,"55":891,"ll":892,"87":893,"footer":894,"section":895,"32":896,"of":897,"Ġla":898,"cdn":899,"use":900,"60":901,"ute":902,"ine":903,"bottom":904,"67":905,"Ġĉĉĉĉĉĉĉĉĉ":906,"ĠĠĠĠĠĠĠĠĠ":907,"IC":908,"ass":909,"Con":910,"ign":911,"gif":912,"ies":913,"static":914,"padding":915,":#":916,"Ġ+":917,"og":918,"ĠI":919,"Ġno":920,"down":921,"=\"#":922,"à¦":923,"cn":924,"mail":925,"Element":926,"Ðº":927,"82":928,"Ġĉĉĉĉĉĉĉĉĉĉĉĉ":929,"ĠO":930,"res":931,"Ġof":932,"cu":933,"Ġ$":934,"ist":935,"vice":936,"sel":937,"Ġonclick":938,"ption":939,"ts":940,"','":941,"none":942,"add":943,"70":944,"que":945,"google":946,"ler":947,"ĠĠĠĠĠĠĠĠĠĠĠĠĠĠ":948,"over":949,"ĠĠĠĠĠĠĠĠĠĠĠĠĠĠĠĠĠĠĠĠĠĠĠĠĠĠĠĠĠĠĠĠĠĠĠĠĠĠĠĠĠĠĠĠĠĠĠĠĠĠĠĠĠĠĠĠĠĠĠĠĠĠĠĠĠĠĠĠĠĠĠĠĠĠĠĠĠĠĠĠĠĠĠĠĠĠĠĠĠĠĠĠĠĠĠĠĠĠĠĠĠĠĠĠĠĠĠĠĠĠĠĠĠĠĠĠĠĠĠĠĠĠĠĠĠĠĠĠ":950,"container":951,"cial":952,"45":953,"mi":954,"sli":955,"true":956,"0000":957,"kit":958,"che":959,"Ġ/></":960,"event":961,"pan":962,"ted":963,"table":964,"86":965,"Ti":966,"01":967,"AAAA":968,"ld":969,"af":970,"vo":971,"Se":972,"Ø¨":973,"ran":974,"ĠĠĠĠĠĠĠ":975,"Ø³":976,"ode":977,"user":978,"Im":979,"47":980,"ĠR":981,"(){":982,"ha":983,"89":984,"body":985,"ink":986,"23":987,"info":988,"org":989,"track":990,";\"":991,"**":992,"ja":993,"ery":994,"ban":995,"Ġif":996,"sa":997,"align":998,"ds":999,"cre":1000,"lar":1001,",.":1002,"ush":1003,"21":1004,"position":1005,"tw":1006,"300":1007,"Ag":1008,"49":1009,"ome":1010,"ka":1011,"ren":1012,"zy":1013,"pub":1014,"/?":1015,"window":1016,"fix":1017,"äº":1018,"count":1019,"upload":1020,"ĠĠĠĠĠĠĠĠĠĠĠĠĠĠĠĠĠ":1021,"code":1022,"webkit":1023,"par":1024,"Ġ:":1025,"ps":1026,"vel":1027,"fault":1028,"field":1029,".</":1030,"ĠĠĠĠĠĠĠĠĠĠĠĠĠĠĠĠĠĠĠĠĠĠĠĠĠĠĠĠĠĠĠĠĠĠĠĠĠĠĠĠ":1031,"show":1032,"ID":1033,";</":1034,"mes":1035,"ĠĠĠĠĠĠĠĠĠĠĠĠĠ":1036,"iz":1037,"car":1038,"77":1039,"rop":1040,"fr":1041,"try":1042,"\");":1043,"09":1044,"Ġmenu":1045,"')":1046,"ets":1047,"æľ":1048,"}}":1049,"action":1050,"man":1051,"sele":1052,"=\"//":1053,"';":1054,"ith":1055,"clear":1056,"ject":1057,"pl":1058,"share":1059,"bile":1060,"ui":1061,"red":1062,"arent":1063,"ase":1064,"95":1065,"ls":1066,"center":1067,"Ñĥ":1068,"small":1069,"\";":1070,"logo":1071,"Ġ!":1072,";:":1073,"').":1074,"Ġpro":1075,";&#":1076,"oli":1077,"fig":1078,"pper":1079,"Ġbackground":1080,"gr":1081,"48":1082,"ĠV":1083,"fin":1084,"prop":1085,":\"":1086,"03":1087,"tri":1088,"},{\"":1089,"able":1090,"bu":1091,"Ġ5":1092,"ys":1093,"cm":1094,"31":1095,"ore":1096,"false":1097,"ble":1098,"read":1099,"Ø§ÙĨ":1100,"Event":1101,"Ġi":1102,"De":1103,",#":1104,"Pro":1105,"ror":1106,"atch":1107,"entry":1108,"ns":1109,"cy":1110,"ild":1111,"null":1112,"Ġ4":1113,"ollow":1114,"åħ":1115,"hi":1116,"Ġ|":1117,"ance":1118,"mon":1119,"97":1120,"loat":1121,"68":1122,"ber":1123,"push":1124,"By":1125,"ĠU":1126,"Ġpo":1127,"int":1128,"000":1129,"leng":1130,"ud":1131,"ree":1132,"ĠĠĉ":1133,"ni":1134,"btn":1135,"Ùģ":1136,"tes":1137,"por":1138,"Ñĭ":1139,"log":1140,"\")":1141,"Ð²":1142,"Te":1143,"length":1144,"-%":1145,"\"/>":1146,"cor":1147,"ature":1148,"><!--":1149,"å¤":1150,"qui":1151,"Ġ3":1152,"Ġtr":1153,"ĠĠĠĠĠĠĠĠĠĠĠĠĠĠĠĠĠĠĠĠĠĠĠĠĠĠĠĠĠĠĠĠĠĠĠĠĠĠĠĠĠĠĠĠ":1154,"2015":1155,"bb":1156,"74":1157,"Ġĉĉĉĉĉĉĉĉĉĉ":1158,"hover":1159,"83":1160,"Ġst":1161,")</":1162,"clo":1163,"hoto":1164,"ang":1165,"Ú©":1166,"ell":1167,"02":1168,"widget":1169,";}":1170,"ĠK":1171,"more":1172,"':":1173,"wrap":1174,"Lo":1175,"ĠÎ":1176,"ap":1177,"Ġ10":1178,"Ġmargin":1179,"default":1180,"tv":1181,"group":1182,"ĠĠĠĠĠĠĠĠĠĠĠĠĠĠĠĠĠĠ":1183,"Ne":1184,"od":1185,"Ñı":1186,"Ġli":1187,"follow":1188,"uploads":1189,"sour":1190,"};":1191,"vis":1192,"price":1193,"source":1194,"ĉĉĉĉĉĉĉĉĉĉĉĉĉĉĉĉ":1195,"94":1196,"acebook":1197,"mit":1198,"\":{\"":1199,"FF":1200,"Ġfont":1201,"radi":1202,"tor":1203,"ten":1204,"ĠĠĉĉĉĉ":1205,"fil":1206,"gen":1207,"she":1208,"Ġfunction":1209,"fb":1210,"my":1211,"ĠØ§ÙĦ":1212,"Ġitemprop":1213,"key":1214,"];":1215,"Ġdocument":1216,"ĠÙħ":1217,"xs":1218,"max":1219,"ER":1220,"aa":1221,"81":1222,"ath":1223,"Ġ[":1224,"mobile":1225,"reg":1226,"itter":1227,"Link":1228,"cc":1229,"IN":1230,"mer":1231,"wrapper":1232,"ĠĉĠĉ":1233,"Ġdi":1234,"stom":1235,"off":1236,"blog":1237,"reen":1238,"Ð¼":1239,"import":1240,"asp":1241,"tool":1242,";&":1243,"Ġfa":1244,"Ġ//":1245,"ĠIn":1246,"uk":1247,"TA":1248,"orm":1249,"\").":1250,"=\"\">":1251,"ments":1252,"login":1253,"åı":1254,"md":1255,"lock":1256,"lic":1257,"].":1258,"Ġar":1259,"value":1260,"ale":1261,"61":1262,"Ch":1263,"çĶ":1264,"Bo":1265,"spon":1266,"by":1267,"des":1268,"ĠĀ":1269,"å®":1270,"comp":1271,"word":1272,"tail":1273,"modu":1274,"Ø´":1275,"pop":1276,"'><":1277,"Ġro":1278,"ya":1279,"fore":1280,"tip":1281,"ĠĠĠĠĠĠĠĠĠĠĠ":1282,"200":1283,"inner":1284,"inter":1285,"146":1286,"ĠØ¨":1287,"important":1288,"%;":1289,"aser":1290,"ĠJ":1291,"gba":1292,"dl":1293,"mark":1294,"spe":1295,"Ð´":1296,"ki":1297,"cur":1298,"08":1299,"auto":1300,"card":1301,"96":1302,"ON":1303,"location":1304,"bal":1305,"72":1306,"á»":1307,"ÙĤ":1308,"ive":1309,"umn":1310,"&&(":1311,"He":1312,"sv":1313,"nofollow":1314,"shop":1315,"Ġis":1316,"ÑĮ":1317,"Ø¹":1318,"Ġl":1319,"rom":1320,"Type":1321,"ads":1322,"eb":1323,"Ø©":1324,"à¹":1325,"cess":1326,"fla":1327,"ãĥ¼":1328,"Ġ/><":1329,"<!--":1330,"va":1331,"Ġfalse":1332,"46":1333,"ily":1334,"Ġcolor":1335,"Ø§Ø±":1336,"uto":1337,"ories":1338,"lang":1339,"ee":1340,"select":1341,"mod":1342,"df":1343,"ĠRe":1344,"htm":1345,"Ã©":1346,"Image":1347,"href":1348,"adow":1349,"rame":1350,"Ġ\">":1351,"auth":1352,"Ġicon":1353,"\"},{\"":1354,"getElement":1355,"iew":1356,"æĸ":1357,"Ä±":1358,";,":1359,"Ġnone":1360,"arrow":1361,"Qu":1362,"chan":1363,"====":1364,"orig":1365,"ĠĠĠĠĠĠĠĠĠĠĠĠĠĠĠĠĠĠĠ":1366,"scription":1367,"files":1368,"59":1369,"assets":1370,"day":1371,"hol":1372,"ICAg":1373,"play":1374,"roll":1375,"Ar":1376,"forum":1377,"Le":1378,"BA":1379,"Ġse":1380,"country":1381,"Î±":1382,"parent":1383,"Ġj":1384,"error":1385,"tu":1386,"shadow":1387,"RE":1388,"Ġsc":1389,"ĠĠĠĠĠĠĠĠĠĠĠĠĠĠĠĠĠĠĠĠĠ":1390,"nail":1391,"ger":1392,"edi":1393,"gu":1394,"bl":1395,"TE":1396,"ven":1397,"check":1398,"54":1399,"rite":1400,"Ġĉĉĉĉĉĉĉĉĉĉĉ":1401,"lazy":1402,"Ġth":1403,"ach":1404,"gi":1405,"yn":1406,"lign":1407,"trans":1408,"Ġtext":1409,"56":1410,"za":1411,"76":1412,"ary":1413,"sport":1414,"Ġbe":1415,"ip":1416,"tra":1417,"Ġ&#":1418,"alle":1419,"wh":1420,"star":1421,"lobal":1422,"=\\\"":1423,"Com":1424,"[\"":1425,"ÃĤ":1426,"='/":1427,"DA":1428,"Ġthis":1429,"teaser":1430,"proto":1431,"pic":1432,"Ø§ÛĮ":1433,"Ġen":1434,"Ġ2016":1435,"Ġk":1436,"ded":1437,"----":1438,"su":1439,"79":1440,"Ġclear":1441,"banner":1442,"query":1443,"else":1444,"Ġrgba":1445,"gt":1446,"feature":1447,"place":1448,"Ġalign":1449,"hr":1450,"Nav":1451,"tics":1452,"file":1453,":-":1454,"origin":1455,"003":1456,"064":1457,"olid":1458,"enu":1459,"drop":1460,"Ġme":1461,"dt":1462,"sol":1463,"ress":1464,"twitter":1465,"create":1466,"social":1467,"pr":1468,"ãģ®":1469,"cus":1470,"Î¿":1471,"holder":1472,"Ġsolid":1473,"photo":1474,"St":1475,"bg":1476,"thumbnail":1477,"ÑģÑĤ":1478,"Time":1479,"ĠĠĉĉ":1480,"Ġ_":1481,"},\"":1482,"sco":1483,"lan":1484,"cl":1485,"YW":1486,"level":1487,"Page":1488,"facebook":1489,"tid":1490,"rol":1491,"âĢļ":1492,"perty":1493,"game":1494,"fir":1495,"pc":1496,"wa":1497,"Ġ7":1498,"db":1499,"float":1500,"Be":1501,"++":1502,"\\\\":1503,"jo":1504,"Ġ});":1505,"]=":1506,"ÏĦ":1507,"sion":1508,"Ġyour":1509,"Ġx":1510,"als":1511,"ĠĠĠĠĠĠĠĠĠĠĠĠĠĠĠĠĠĠĠĠĠĠ":1512,"['":1513,"ading":1514,"bout":1515,"hd":1516,"PS":1517,"Ġpadding":1518,"ix":1519,"side":1520,"custom":1521,"ĠĠĠĠĠĠĠĠĠĠĠĠĠĠĠ":1522,"ĠY":1523,"Ġan":1524,"test":1525,"Ġĉĉĉĉĉĉĉĉĉĉĉĉĉĉĉĉ":1526,"active":1527,"Ġun":1528,"Content":1529,"mp":1530,"ook":1531,"ousel":1532,"sup":1533,"sheet":1534,"42":1535,"ader":1536,"ä»":1537,"UR":1538,"rent":1539,"98":1540,"Î¹":1541,"73":1542,"Ð¹":1543,"US":1544,"column":1545,"slide":1546,"Ġ20":1547,"Ġleft":1548,"pb":1549,"class":1550,"78":1551,"igation":1552,"åĪ":1553,"dient":1554,"light":1555,"});":1556,"ill":1557,"open":1558,"ĠĠĠĠĠĠĠĠĠĠĠĠĠĠĠĠĠĠĠĠĠĠĠĠĠĠĠĠĠĠĠĠĠĠĠĠĠĠĠĠĠĠĠĠĠĠĠĠ":1559,";\"><":1560,";:&":1561,"Ġwith":1562,"ĠÐ¿":1563,"ND":1564,"stylesheet":1565,"svg":1566,"respon":1567,"Â²":1568,"))":1569,"255":1570,"io":1571,"back":1572,"linear":1573,"Ġinput":1574,"gradient":1575,"Ġrole":1576,"List":1577,"à¥":1578,"Ġch":1579,"sti":1580,"let":1581,"Mo":1582,"noscript":1583,"aly":1584,"120":1585,"Tr":1586,"XX":1587,"63":1588,"utm":1589,"stat":1590,"AC":1591,"Ġ><":1592,"aspx":1593,"æĹ":1594,"module":1595,"ize":1596,"ye":1597,"51":1598,"views":1599,"Home":1600,"dis":1601,"åĽ":1602,"IG":1603,"çļ":1604,"oun":1605,"tions":1606,"detail":1607,"Ġjs":1608,"ec":1609,"ache":1610,"grid":1611,"To":1612,"ategory":1613,"vb":1614,"150":1615,"tooltip":1616,"ind":1617,"Ġ\\":1618,"Sh":1619,"Click":1620,"author":1621,"ark":1622,"uch":1623,"Ð¾Ð²":1624,"rect":1625,"Ma":1626,"41":1627,"alog":1628,"Ġclearfix":1629,"ji":1630,"focus":1631,"****":1632,"Ø²":1633,"ÑĢÐ°":1634,"ube":1635,"move":1636,"Item":1637,"62":1638,"cont":1639,"58":1640,"ICAgICAg":1641,"43":1642,"submit":1643,"description":1644,"pos":1645,"ZW":1646,"Ġtrue":1647,"ãĥ³":1648,"002":1649,"NT":1650,"ÐµÐ½":1651,"039":1652,"radius":1653,"lt":1654,"wi":1655,"cb":1656,"']":1657,"Ġ8":1658,"mouse":1659,"cs":1660,"ther":1661,"Ġtop":1662,"ĠĠĠĠĠĠĠĠĠĠĠĠĠĠĠĠĠĠĠĠĠĠĠĠĠ":1663,"ae":1664,"Ġwindow":1665,"tin":1666,"rl":1667,"global":1668,"val":1669,"IE":1670,"AL":1671,"Top":1672,"Ġ==":1673,"land":1674,"self":1675,"ai":1676,"Di":1677,"sign":1678,"ĠÙĪ":1679,"her":1680,")\"":1681,"Text":1682,"path":1683,"figure":1684,"çļĦ":1685,"mb":1686,"original":1687,"start":1688,"flow":1689,"Ã¡":1690,"Ġaria":1691,"lace":1692,"hu":1693,"Ġ6":1694,"sites":1695,"brand":1696,"hp":1697,"'></":1698,"ling":1699,";,&":1700,"åį":1701,"Ð·":1702,"moz":1703,"onent":1704,"zi":1705,"æĪ":1706,"Ġ9":1707,"250":1708,"cal":1709,"Ġyou":1710,"({":1711,"cf":1712,"===":1713,"The":1714,"ĠĉĉĠĉĉ":1715,"\"]":1716,"mary":1717,"can":1718,"ä½":1719,"DE":1720,"Class":1721,"weight":1722,"CA":1723,"slider":1724,"Menu":1725,"live":1726,"Ġcom":1727,"Ġ100":1728,"Ġhttp":1729,"object":1730,"Tag":1731,"Ġfi":1732,"ator":1733,"ĠØ¯":1734,"story":1735,"amily":1736,"links":1737,"åĲ":1738,"last":1739,"medium":1740,"solute":1741,"jquery":1742,"93":1743,"ĠĠĠĠĠĠĠĠĠĠĠĠĠĠĠĠĠĠĠĠĠĠĠĠĠĠĠĠĠĠĠĠĠĠĠĠĠĠĠĠĠĠĠĠĠĠĠĠĠĠĠĠ":1744,"email":1745,"Box":1746,"YX":1747,"Ġ*":1748,"åĬ":1749,"son":1750,"Ġz":1751,"92":1752,"ĠÐ²":1753,"mode":1754,"first":1755,".$":1756,"çī":1757,">&":1758,"dropdown":1759,"Ø¬":1760,"202":1761,"city":1762,"TM":1763,"52":1764,"press":1765,"Ñĩ":1766,"53":1767,"TI":1768,"=\".":1769,"91":1770,"/>":1771,"ØŃ":1772,"Ad":1773,"Ð¿":1774,"ung":1775,"ico":1776,"Ġurl":1777,"jax":1778,"Ġnew":1779,"tran":1780,"ko":1781,"inline":1782,"tel":1783,"flag":1784,"AD":1785,"scroll":1786,"dG":1787,"Ø§Ùħ":1788,"cli":1789,"lg":1790,"201605":1791,"ÐµÑĢ":1792,"ug":1793,"ĠĠĉĉĉ":1794,"service":1795,"Ú¯":1796,"ks":1797,"pass":1798,"Îµ":1799,"áº":1800,"Ġà¤":1801,"child":1802,"ĠÑģ":1803,"OR":1804,"å°":1805,"Î½":1806,"\\/\\/":1807,"Ġma":1808,"ins":1809,"Ġdo":1810,"common":1811,"promo":1812,"Ġ15":1813,"online":1814,"hide":1815,"king":1816,":'":1817,"acity":1818,"tb":1819,"elp":1820,"Ġauto":1821,"HR":1822,"ync":1823,"ama":1824,"typeof":1825,"ams":1826,"ctl":1827,"àª":1828,"Ġreturn":1829,"Query":1830,"alytics":1831,"node":1832,"themes":1833,"panel":1834,"Ġdisplay":1835,"Of":1836,"![":1837,"Ð±":1838,"lot":1839,"base":1840,"ters":1841,"rela":1842,"Me":1843,"åŃ":1844,"ele":1845,"OS":1846,"opacity":1847,"MS":1848,"Node":1849,"call":1850,"Ã¼":1851,"ZX":1852,"Ġ||":1853,"homepage":1854,"('#":1855,"ggle":1856,"carousel":1857,"Ġtag":1858,"Ex":1859,"At":1860,"Ġhidden":1861,"ervice":1862,"._":1863,"ĠĠĠĠĠĠĠĠĠĠĠĠĠĠĠĠĠĠĠĠĠĠĠĠĠĠĠĠĠ":1864,"ast":1865,"fff":1866,"Ġblock":1867,":\\/\\/":1868,"ssage":1869,"ari":1870,"180":1871,"Url":1872,"ĠĠĠĠĠĠĠĠĠĠĠĠĠĠĠĠĠĠĠĠĠĠĠĠĠĠ":1873,"space":1874,"ata":1875,"fk":1876,"txt":1877,"å¹":1878,"xx":1879,"Ġat":1880,"part":1881,"has":1882,"lex":1883,"tical":1884,"ray":1885,"ĠØª":1886,"LE":1887,"\"/></":1888,"OD":1889,"à§":1890,"hot":1891,"AR":1892,"\"),":1893,"ible":1894,"ZG":1895,"templa":1896,"igh":1897,"umber":1898,"family":1899,"Ã³":1900,"nel":1901,"quo":1902,"\">&":1903,"modal":1904,"lit":1905,"/%":1906,"gram":1907,"=\"#\"":1908,"now":1909,"lish":1910,"160":1911,"Ġnav":1912,"ĠĠĠĠĠĠĠĠĠĠĠĠĠĠĠĠĠĠĠĠĠĠĠĠĠĠĠĠĠĠĠĠĠĠĠĠĠĠĠĠĠĠĠĠĠĠĠĠĠĠĠĠĠĠĠĠĠĠĠĠĠĠĠĠĠĠĠĠĠĠĠĠĠĠĠĠĠĠĠĠĠĠĠĠĠĠĠĠĠĠĠĠĠĠĠĠĠĠĠĠĠĠĠĠĠĠĠĠĠĠĠĠĠĠĠĠĠĠĠĠĠĠĠĠĠĠĠĠĠĠĠĠĠĠĠĠĠĠĠĠĠĠĠĠĠĠĠĠĠĠĠĠĠĠĠĠĠĠĠĠĠĠĠĠĠĠĠĠĠĠĠĠĠĠĠĠĠĠĠĠĠĠĠĠĠĠĠĠĠĠĠĠĠĠĠĠĠĠĠĠĠĠĠĠĠĠĠĠĠĠĠĠĠĠĠĠĠĠĠĠĠĠĠĠĠĠĠĠĠĠĠĠĠĠĠĠĠĠĠĠĠĠĠĠĠĠĠĠĠĠĠĠĠĠĠĠ":1913,"sw":1914,"=!":1915,"prototype":1916,"Ġmedia":1917,"An":1918,"Po":1919,"uage":1920,"roid":1921,"Ġ12":1922,"sche":1923,"Ø®":1924,"ï¼Į":1925,"Ð³":1926,"å¥":1927,"+\"":1928,"ana":1929,"toggle":1930,"movie":1931,"ME":1932,"Ġlo":1933,"éĢ":1934,"sor":1935,"ars":1936,"public":1937,"transform":1938,"fc":1939,"lity":1940,"Sta":1941,"åľ":1942,"rating":1943,"act":1944,"SS":1945,"Search":1946,"ina":1947,"feed":1948,"uni":1949,"Th":1950,"lb":1951,"Âł":1952,"ĠThe":1953,"full":1954,"vc":1955,"/\"><":1956,"ek":1957,"Do":1958,"Ïģ":1959,"iness":1960,"ara":1961,"è¯":1962,"ial":1963,"OT":1964,"Ø§Øª":1965,"wo":1966,"store":1967,"Ġgoogle":1968,"ports":1969,"Col":1970,"Ġad":1971,"NC":1972,"zc":1973,"gories":1974,"Ġac":1975,"AB":1976,"hb":1977,"cam":1978,"usiness":1979,"target":1980,"lete":1981,"ormal":1982,"ä¹":1983,"News":1984,"screen":1985,"sive":1986,"Ġlang":1987,"400":1988,"eng":1989,"ular":1990,"icons":1991,"close":1992,"Ob":1993,"ĠNe":1994,"tern":1995,"////":1996,"spac":1997,"createElement":1998,"sto":1999,"old":2000,"Lj":2001,"Ġcell":2002,"Ġby":2003,"Ġex":2004,"={":2005,"reak":2006,"ics":2007,"Sc":2008,"white":2009,"On":2010,"No":2011,"headline":2012,"ien":2013,"ĠÐ½":2014,"mid":2015,"comment":2016,"Title":2017,"plus":2018,"ik":2019,"ave":2020,"cted":2021,"aW":2022,"71":2023,"terna":2024,"Ïĥ":2025,"bd":2026,"decor":2027,"mas":2028,"dif":2029,"Ġle":2030,"caption":2031,"peat":2032,"fav":2033,"videos":2034,"ado":2035,"ny":2036,"Ġproperty":2037,"Fi":2038,"bold":2039,"remove":2040,"ĠÐ¸":2041,"front":2042,"ust":2043,"ajax":2044,"TY":2045,"dle":2046,"Ġga":2047,"\"Ā":2048,"Pri":2049,"lication":2050,"area":2051,"iste":2052,"ĠâĢ":2053,"sBy":2054,"Ġ,":2055,"rd":2056,"sy":2057,"mall":2058,"æĺ":2059,"jfk":2060,"Sub":2061,"è¿":2062,"Ùĥ":2063,"getElementsBy":2064,"deal":2065,"desk":2066,"'s":2067,"reac":2068,"tach":2069,"View":2070,"comments":2071,"GE":2072,"Ac":2073,"navigation":2074,"ada":2075,"trib":2076,"before":2077,"cond":2078,"ä¼":2079,"cook":2080,"à´":2081,"Øµ":2082,"Ġtab":2083,"Ġĉĉĉĉĉĉĉĉĉĉĉĉĉ":2084,"ĉĉĉĉĉ":2085,"allery":2086,"download":2087,"Ġonmouse":2088,"Ġor":2089,"job":2090,"2014":2091,"eu":2092,"big":2093,"work":2094,"å¸":2095,"æī":2096,"ById":2097,"åĮ":2098,"sho":2099,"ste":2100,"Ġ--":2101,"ef":2102,"abled":2103,"PC":2104,"dia":2105,"\":\"\",\"":2106,"ĠØ³":2107,"cture":2108,"map":2109,"reactid":2110,"mm":2111,"Ii":2112,"Ø§Ø³":2113,"Ġbtn":2114,"touch":2115,"fl":2116,"iews":2117,"à®":2118,"life":2119,"clearfix":2120,"getElementById":2121,"products":2122,"sen":2123,"Ù¾":2124,"ready":2125,"pen":2126,"mber":2127,"void":2128,"ning":2129,"ku":2130,"(\"#":2131,"ssion":2132,"sch":2133,"tact":2134,"rea":2135,"âĢŀ":2136,"110":2137,"ĠPro":2138,"dc":2139,"bc":2140,"äºº":2141,",'":2142,"very":2143,"vr":2144,"Track":2145,"ces":2146,"AF":2147,"åº":2148,"ors":2149,"about":2150,"}#":2151,"tl":2152,"):":2153,"ÃŃ":2154,"TagName":2155,"shi":2156,"ãĥĪ":2157,"().":2158,";-":2159,"lease":2160,"getElementsByTagName":2161,"ood":2162,"ep":2163,"BB":2164,"its":2165,"Ø·":2166,"tional":2167,"decoration":2168,"zh":2169,"Ġsize":2170,"sing":2171,"Â¬":2172,"rem":2173,"cache":2174,"Form":2175,"æĿ":2176,"Ġ16":2177,"Ġas":2178,"ĠDe":2179,"ib":2180,"Ġ14":2181,"parentNode":2182,"\":[":2183,"ãĢģ":2184,"lugin":2185,"state":2186,"ange":2187,"large":2188,"è®":2189,";}.":2190,"next":2191,"vid":2192,"uti":2193,"py":2194,"GF":2195,"Ġ&&":2196,"è¡":2197,"Ð°Ð½":2198,"defin":2199,"Mj":2200,"Ġfield":2201,"ish":2202,"320":2203,"ĠĠĠĠĠĠĠĠĠĠĠĠĠĠĠĠĠĠĠĠĠĠĠĠĠĠĠ":2204,"MA":2205,"uc":2206,"send":2207,"ties":2208,"Ñħ":2209,"popup":2210,"('.":2211,"========":2212,"repeat":2213,"ĠIE":2214,"Ġright":2215,"ĠSt":2216,"å·":2217,"ĠĠĠĠĠĠĠĠĠĠĠĠĠĠĠĠĠĠĠĠĠĠĠ":2218,"Ġall":2219,");\"":2220,"240":2221,"zon":2222,"bs":2223,"cha":2224,"soft":2225,"Ø±ÙĪ":2226,"MC":2227,"inte":2228,"MD":2229,"board":2230,"ãĤ¹":2231,"));":2232,"poli":2233,"Wid":2234,"OC":2235,"apple":2236,"Str":2237,"Mi":2238,"siz":2239,"element":2240,"ĠĠĠĠĠĠĠĠĠĠĠĠĠĠĠĠĠĠĠĠĠĠĠĠĠĠĠĠĠĠĠĠĠĠĠĠĠĠĠĠĠĠĠĠĠĠĠĠĠĠĠĠĠĠĠĠĠĠĠĠ":2241,"Â°":2242,"gaq":2243,"case":2244,"iframe":2245,"tation":2246,"##":2247,"ãģĦ":2248,"ey":2249,"ĠÚ©":2250,"ĠĉĉĉĠĉĉĉ":2251,"ua":2252,"OP":2253,"watch":2254,"Ġbox":2255,"enti":2256,"ÏĤ":2257,"jb":2258,"Ð¾ÑĢ":2259,"Ġsh":2260,"nr":2261,"archive":2262,")};":2263,"Ð°Ð»":2264,"å¤§":2265,"redi":2266,"!=":2267,"dom":2268,"games":2269,"bol":2270,"ãģ«":2271,"sprite":2272,"resource":2273,"Code":2274,"ÐµÑĤ":2275,"cer":2276,"600":2277,"responsive":2278,"az":2279,"},{":2280,"defined":2281,"Ġview":2282,"from":2283,"\"+":2284,"gg":2285,"Ġviews":2286,"Ġfloat":2287,"Ġposition":2288,"ä¸Ń":2289,"ç»":2290,"anim":2291,"æĸ°":2292,"::":2293,"lap":2294,"ĠÐ¾":2295,"MT":2296,"uy":2297,"Ġcenter":2298,"ï¼ģ":2299,"ea":2300,"Data":2301,"ware":2302,"mg":2303,"Î·":2304,"ital":2305,"alth":2306,"sb":2307,"change":2308,"Category":2309,"dio":2310,"stre":2311,"Ġdiv":2312,"ÑģÐº":2313,"Ġlink":2314,"desktop":2315,"æĹ¥":2316,"CB":2317,"Ø§Ø²":2318,"thod":2319,"articles":2320,"endif":2321,"attach":2322,"vers":2323,"Ġimg":2324,"æµ":2325,"(['":2326,"phone":2327,"analytics":2328,"æĬ":2329,"ooter":2330,"Ð°ÑĤ":2331,"hat":2332,"Up":2333,"tos":2334,"pages":2335,">,":2336,"ãĤ¤":2337,")(":2338,"cr":2339,"lection":2340,"=/":2341,"overlay":2342,"async":2343,"]>":2344,"Ġ$(":2345,"featured":2346,"gallery":2347,"password":2348,"Ġel":2349,"cent":2350,"Ġpost":2351,";<":2352,"Un":2353,"Nz":2354,"free":2355,"å¼":2356,"Mz":2357,"':'":2358,"alt":2359,"usi":2360,"çĽ":2361,"sca":2362,"Ij":2363,"sert":2364,"...</":2365,"component":2366,"status":2367,"acy":2368,"tech":2369,"ffff":2370,"OM":2371,"Date":2372,"scope":2373,"ux":2374,"rs":2375,"Ġelse":2376,"\"==":2377,"AS":2378,"AN":2379,"bro":2380,"cloud":2381,"114":2382,"Liste":2383,"ĠÙģ":2384,"wd":2385,"desc":2386,"sum":2387,"Ð¸ÑĤ":2388,"åĨ":2389,"éĩ":2390,"Ð¾Ð»":2391,"string":2392,"(!":2393,"AAAAAAAA":2394,"Ġ?":2395,"dm":2396,"Ġup":2397,"own":2398,"format":2399,"len":2400,"ĠÐº":2401,"Ġgoogletag":2402,"Ġfrom":2403,"ane":2404,"char":2405,"PE":2406,"edu":2407,"Ġ/*":2408,"--------":2409,"shtml":2410,"fn":2411,"OL":2412,"items":2413,"=%":2414,"UT":2415,"Ġul":2416,"irst":2417,"Listener":2418,"theme":2419,"def":2420,"ĠĠĠĠĠĠĠĠĠĠĠĠĠĠĠĠĠĠĠĠĠĠĠĠĠĠĠĠĠĠĠĠĠĠĠĠĠĠĠĠĠĠĠĠĠĠĠĠĠĠĠĠĠĠĠĠ":2421,"ï¼ļ":2422,"quest":2423,"heck":2424,"Coun":2425,"Header":2426,"TR":2427,"Nj":2428,"Î»":2429,"...":2430,"catalog":2431,"En":2432,"absolute":2433,"mun":2434,"ons":2435,"Product":2436,"Ġover":2437,"overflow":2438,"500":2439,"uid":2440,"oc":2441,"anner":2442,"categories":2443,"åĵ":2444,"\"},\"":2445,"ĉĉĉĉĉĉ":2446,"mic":2447,"layer":2448,"SB":2449,"Ġtabindex":2450,"rid":2451,"stra":2452,"insert":2453,"member":2454,"ple":2455,"ani":2456,"tribute":2457,"Ġver":2458,"ĠÃĲ":2459,"lin":2460,"Ø§Ø¯":2461,"itch":2462,"$(":2463,"Ġ*/":2464,"Ð¡":2465,"ä¸Ģ":2466,"cms":2467,"usaa":2468,"Er":2469,"âĢĻ":2470,"Ġhas":2471,"cookie":2472,"ç½":2473,"Ð½Ñĭ":2474,"(\".":2475,"+'":2476,"||(":2477,"Ø±ÛĮ":2478,"Before":2479,"New":2480,"ÑĨ":2481,"thing":2482,"]-->":2483,"ĠĠĠĠĠĠĠĠĠĠĠĠĠĠĠĠĠĠĠĠĠĠĠĠĠĠĠĠĠĠĠĠĠ":2484,"iti":2485,"ĠDate":2486,"layout":2487,"ctor":2488,"way":2489,"ï½":2490,"tile":2491,"buy":2492,"ulti":2493,"scale":2494,"Ã¢":2495,"pf":2496,"bility":2497,"device":2498,"cale":2499,"Ġ},":2500,"ual":2501,"Ġĉĉĉĉĉĉĉĉĉĉĉĉĉĉ":2502,"zz":2503,"For":2504,"clu":2505,"gs":2506,"AQ":2507,"125":2508,"stri":2509,"(),":2510,"events":2511,"115":2512,"ãĥ¼ãĥ":2513,"region":2514,"IH":2515,"hor":2516,"checkbox":2517,"control":2518,"catch":2519,"ĠÃ":2520,"ĠÐ´":2521,"transition":2522,"channel":2523,"\"}":2524,"mt":2525,"ãĤĭ":2526,"ÏĢ":2527,"ita":2528,"led":2529,"My":2530,"write":2531,"gre":2532,"lv":2533,"application":2534,"attr":2535,"Ð¾Ð´":2536,"uri":2537,"ero":2538,"ÑĪ":2539,"ES":2540,"Car":2541,"EventListener":2542,"gy":2543,"forma":2544,"ĠĠĉĉĉĉĉĉĉĉ":2545,"360":2546,"Ġ_.":2547,"Ġab":2548,"tax":2549,"vertical":2550,"indexOf":2551,"undefined":2552,"Ãĳ":2553,"Site":2554,"ĠCh":2555,"ister":2556,"lc":2557,"ĠCon":2558,"å±":2559,"ones":2560,"current":2561,"ãĤĴ":2562,"DI":2563,"åĩ":2564,"Ġend":2565,"sec":2566,"only":2567,"ÐµÐ»":2568,"éĽ":2569,"plugin":2570,"heading":2571,"replace":2572,"bm":2573,"ãģĹ":2574,"ĠĠĠĠĉ":2575,"bed":2576,":</":2577,"!==":2578,"short":2579,"usic":2580,"ĠZ":2581,"Ð¾Ð¼":2582,"ĠMo":2583,"ĠĉĉĉĉĠĉĉĉĉ":2584,"insertBefore":2585,"hc":2586,"Ð¶":2587,"late":2588,"åĽ½":2589,"Ġco":2590,"ĠĠĠĠĠĠĠĠĠĠĠĠĠĠĠĠĠĠĠĠĠĠĠĠĠĠĠĠĠĠ":2591,"Ġpage":2592,"ãĥĥ":2593,"primary":2594,"template":2595,"LW":2596,"ĠSe":2597,"air":2598,"tags":2599,"tc":2600,"æ¸":2601,"Fe":2602,"Ġnull":2603,"ookie":2604,"è½":2605,"ĠAr":2606,"sd":2607,"alterna":2608,"hoo":2609,"schema":2610,"à°":2611,"relative":2612,"Ġinset":2613,"CQ":2614,"tick":2615,"ĠÙĨ":2616,"Ġì":2617,"140":2618,"ript":2619,"ao":2620,"Ġmore":2621,"è´":2622,"/_":2623,"num":2624,"campa":2625,"tok":2626,"pany":2627,"sg":2628,"tal":2629,"Ġda":2630,"000000":2631,"ternal":2632,"spacing":2633,"sparent":2634,"mat":2635,"DQ":2636,"ĉĉĉĉĉĉĉĉĉĉĉĉĉĉĉĉĉĉĉĉĉĉĉĉĉĉĉĉĉĉĉĉ":2637,"bookmark":2638,"Ïħ":2639,"ĠÄ":2640,"SI":2641,"selected":2642,"cz":2643,"tit":2644,"tings":2645,"sf":2646,"bf":2647,"ash":2648,"with":2649,"ä¿":2650,"Ġplace":2651,"Ġmo":2652,"gh":2653,"Ġ11":2654,"\\\",":2655,"]:":2656,"Ġline":2657,"second":2658,"vali":2659,"help":2660,"='_":2661,"filter":2662,"acute":2663,"oi":2664,"split":2665,"wn":2666,"rest":2667,"hand":2668,"Ġaction":2669,"ãģ§":2670,"campaign":2671,"Object":2672,"æķ":2673,"break":2674,"Ġdate":2675,"ited":2676,"ãģª":2677,"flex":2678,"144":2679,"BE":2680,"GV":2681,"AE":2682,"Ver":2683,"world":2684,"styles":2685,"ĠĠĉĉĉĉĉ":2686,"ous":2687,"radio":2688,"ãģĮ":2689,";(":2690,"ãģŁ":2691,"api":2692,"Ġchar":2693,"las":2694,"thumbs":2695,"profile":2696,"App":2697,"dn":2698,"Ã¤":2699,"ÙĪØ±":2700,"ear":2701,"-_":2702,"Ġsub":2703,"you":2704,"Ġthat":2705,"hl":2706,"ĠØ¹":2707,"Ġng":2708,"URL":2709,");\">":2710,"(['_":2711,"PG":2712,"jsp":2713,"hone":2714,"est":2715,"Ġwe":2716,"tiv":2717,"TML":2718,"à¸Ļ":2719,"ĠÙĩ":2720,"ĠCom":2721,"letter":2722,"Ġu":2723,"topic":2724,"Ð¸Ð½":2725,")\">":2726,"Ġ30":2727,"Ġĉĉĉĉĉĉĉĉĉĉĉĉĉĉĉ":2728,";\"></":2729,"pd":2730,"middle":2731,"ager":2732,"!</":2733,"Img":2734,"Google":2735,"lapse":2736,"{{":2737,"\":\"/":2738,"sys":2739,"googletag":2740,"Îº":2741,"like":2742,"yo":2743,"Ġare":2744,"wer":2745,"Is":2746,"ÅŁ":2747,"atar":2748,"âĢĿ":2749,"mu":2750,"ãĢĤ":2751,"ãģ¦":2752,"match":2753,"ank":2754,"ica":2755,"indi":2756,"à¤¾":2757,"cid":2758,"details":2759,"TV":2760,"Ra":2761,"tracking":2762,"\"/><":2763,"core":2764,"account":2765,"å¾":2766,"client":2767,"Ġ13":2768,"CC":2769,"sidebar":2770,"Ð°ÑĢ":2771,"Ð¸Ñı":2772,"picture":2773,"=&":2774,"So":2775,"La":2776,"ĠØ´":2777,"number":2778,"à¸²":2779,"blue":2780,"CH":2781,"cover":2782,"Ġcat":2783,"Web":2784,"Container":2785,"ping":2786,"pu":2787,"orn":2788,"normal":2789,"Ġso":2790,"EN":2791,"options":2792,"arg":2793,"ÙĪØ¯":2794,"find":2795,"zone":2796,"xy":2797,"135":2798,"DB":2799,"version":2800,"review":2801,"Child":2802,"');\"":2803,"ings":2804,"112":2805,"Ñİ":2806,"********":2807,"ĠĠĠĠĠĠĠĠĠĠĠĠĠĠĠĠĠĠĠĠĠĠĠĠĠĠĠĠĠĠĠĠĠĠĠĠĠ":2808,"=[":2809,"Ġ50":2810,"cast":2811,"pay":2812,">(":2813,"Icon":2814,"kJ":2815,"Ġxml":2816,"sports":2817,"116":2818,"gpt":2819,"Service":2820,"archives":2821,"cia":2822,"message":2823,"hy":2824,"Ġcur":2825,"alternate":2826,"++)":2827,"uments":2828,"043":2829,"Ġvalign":2830,"ĠTh":2831,"Ġvis":2832,"âĢľ":2833,"fer":2834,"(/":2835,"fs":2836,"Ġscreen":2837,"tica":2838,"Script":2839,"Ġ)":2840,"éĻ":2841,"Left":2842,"çº":2843,"ens":2844,"],\"":2845,"bab":2846,"AT":2847,"ura":2848,"Ġte":2849,"Ð¾ÑĤ":2850,"ext":2851,"lip":2852,"equi":2853,"ason":2854,"ustom":2855,"intl":2856,"æ°":2857,"Ġ\"><":2858,"Ĥ¬":2859,"ĠĉĠĠĠ":2860,"tt":2861,"special":2862,"UM":2863,"è§":2864,"dot":2865,"Ð¾Ð½":2866,"submenu":2867,"105":2868,"Al":2869,"hero":2870,"Ġ<!--[":2871,"220":2872,"=\"\"><":2873,"Ġne":2874,"services":2875,"kt":2876,"ZT":2877,"Width":2878,"IS":2879,"ÑĢÐµ":2880,"Ġ24":2881,"Ġmin":2882,"dig":2883,"izes":2884,"%\"":2885,"tate":2886,"care":2887,"lis":2888,"AP":2889,"218":2890,"\\\":":2891,"ques":2892,"addEventListener":2893,"TD":2894,"bet":2895,"ç§":2896,"after":2897,"Ġrela":2898,"Ġmethod":2899,"ÐŁ":2900,"å¿":2901,"123":2902,"Wra":2903,"Ġta":2904,"252":2905,"UA":2906,"ĠØ¯Ø±":2907,"Lay":2908,"ãĤ¢":2909,"both":2910,"èµ":2911,"business":2912,"Video":2913,"lh":2914,"complete":2915,"Ã§":2916,"Ġnot":2917,"ç¾":2918,"ç½ĳ":2919,"dit":2920,"å½":2921,"fu":2922,"ky":2923,"gger":2924,"Ġ{\"":2925,"ump":2926,"trackEvent":2927,"copy":2928,"éģ":2929,"del":2930,"]</":2931,"130":2932,"tm":2933,"Info":2934,"Or":2935,"IF":2936,"ala":2937,"/'":2938,"best":2939,"ibility":2940,"porn":2941,"placeholder":2942,"Pj":2943,"ÙĬØ©":2944,"ãĤ¯":2945,"modules":2946,"Main":2947,"çİ":2948,"ĠTo":2949,"bra":2950,"kin":2951,"scrollbar":2952,"dr":2953,"goo":2954,"rial":2955,"Ġtd":2956,"ĠÐ½Ð°":2957,"win":2958,"Ø³Øª":2959,"config":2960,"ãĢĲ":2961,"lert":2962,"Ġit":2963,"Attribute":2964,"ĠÐ¼":2965,"ori":2966,"assword":2967,"Ġitemscope":2968,"ãĢĳ":2969,"umns":2970,"house":2971,"Sele":2972,"vd":2973,"ĠÙĦ":2974,"Ġitemtype":2975,"Down":2976,"ĠOn":2977,"Email":2978,"requi":2979,"Button":2980,"Ġpri":2981,"ally":2982,"oney":2983,"ox":2984,"VE":2985,")},":2986,"black":2987,"Ġ!=":2988,"fan":2989,"rity":2990,"HO":2991,"201604":2992,"bad":2993,"225":2994,"å¹´":2995,"ãģ¨":2996,"Ġus":2997,"flo":2998,"æŃ":2999,"ÙĨØ¯":3000,"mx":3001,"crop":3002,"preview":3003,"Ho":3004,"2013":3005,"145":3006,"PSJ":3007,"Ġvideo":3008,"lia":3009,"sale":3010,"CE":3011,"sr":3012,"amer":3013,"Ġpar":3014,",!":3015,"=\"-":3016,"disabled":3017,"ord":3018,"Ca":3019,"leg":3020,"SE":3021,"adob":3022,"aded":3023,"aber":3024,")?":3025,"]);":3026,"9999":3027,"abel":3028,"Ġhtml":3029,"\\\",\\\"":3030,"Ã¶":3031,"Out":3032,"signin":3033,"rand":3034,"cell":3035,"ids":3036,"lid":3037,"inet":3038,"ĠAn":3039,"ats":3040,"pix":3041,"nl":3042,"ses":3043,"resources":3044,"lat":3045,"FFFF":3046,"String":3047,"scape":3048,"ĠĠĠĉ":3049,"BD":3050,"plugins":3051,"Ġsizes":3052,"ĠĠĠĠĠĠĠĠĠĠĠĠĠĠĠĠĠĠĠĠĠĠĠĠĠĠĠĠĠĠĠĠĠĠĠĠĠĠĠĠĠĠĠĠĠĠĠĠĠĠĠĠĠĠĠĠĠĠĠĠĠĠĠĠĠĠĠĠĠĠĠĠĠĠĠĠĠĠĠĠĠĠĠĠĠĠĠĠĠĠĠĠĠĠĠĠ":3053,"Ø£":3054,"Sign":3055,"cta":3056,"Ġplaceholder":3057,"ĠjQuery":3058,"ved":3059,"0627":3060,"ano":3061,"ges":3062,"æĶ":3063,"high":3064,"Ġper":3065,"Ro":3066,"Î¯":3067,"thread":3068,"onom":3069,"800":3070,"adobes":3071,"adobesusi":3072,"062":3073,"Timeout":3074,"yu":3075,"gener":3076,"xml":3077,"ponent":3078,"Ø§Ø¨":3079,"Ġtran":3080,"æĢ":3081,"cen":3082,"BR":3083,"BC":3084,"mn":3085,":[":3086,"fd":3087,"Au":3088,"ÐºÐ°":3089,"éĹ":3090,"æĥ":3091,"ated":3092,"Ġget":3093,"Li":3094,"person":3095,"ĠĠĠĠĠĠĠĠĠĠĠĠĠĠĠĠĠĠĠĠĠĠĠĠĠĠĠĠĠĠĠ":3096,"Pop":3097,"vacy":3098,"Ġcan":3099,"tina":3100,"context":3101,"peg":3102,"cart":3103,"640":3104,"ãĥ»":3105,"ju":3106,"0022":3107,"ather":3108,"ied":3109,"([":3110,"ÑĦ":3111,"skin":3112,"rati":3113,"è¦":3114,"fy":3115,"IT":3116,"æİ":3117,"result":3118,"contact":3119,"rss":3120,"æ³":3121,"All":3122,"ward":3123,"cp":3124,"tas":3125,"170":3126,"prod":3127,"Ig":3128,"cel":3129,"ICAgICAgICAgICAg":3130,"åĵģ":3131,"Co":3132,"sia":3133,"?</":3134,"mega":3135,"åĳ":3136,"Ġout":3137,"HJ":3138,"=_.":3139,"ç«":3140,"ker":3141,"Value":3142,"android":3143,"Medi":3144,"jQuery":3145,"Sli":3146,"'+":3147,"access":3148,"rer":3149,"Ġcategory":3150,"ene":3151,"yes":3152,"sur":3153,"ãĥª":3154,"Ġna":3155,"à¸Ń":3156,"rowse":3157,"à¸£":3158,"çĻ":3159,"GB":3160,"Price":3161,"loader":3162,"los":3163,"Ġabsolute":3164,"andard":3165,"ade":3166,"append":3167,"NE":3168,"Ġsp":3169,"tele":3170,"Ġfe":3171,"ãĥ©":3172,"olu":3173,"pref":3174,"Ġ25":3175,"Ġà¦":3176,"Ġ×":3177,"à¦¾":3178,"\"===":3179,"ĠLo":3180,"lk":3181,"kwid":3182,"Î¼":3183,"ãĥ«":3184,"113":3185,"film":3186,"sid":3187,"ĠLe":3188,"onload":3189,"pin":3190,"HTML":3191,"Ġspan":3192,"ah":3193,"kr":3194,"107":3195,"Block":3196,"update":3197,"circ":3198,"gbq":3199,"Ġsite":3200,"TION":3201,"NA":3202,"åİ":3203,"=\"(":3204,"une":3205,"graph":3206,"Par":3207,"sed":3208,"128":3209,"model":3210,"Ġadd":3211,"ĠØ±":3212,"tabs":3213,"Ġpre":3214,"LA":3215,"lable":3216,"Ġset":3217,"hen":3218,"Ġlast":3219,"NS":3220,"mart":3221,"score":3222,"User":3223,"ï½Ĺ":3224,"cle":3225,"ality":3226,"Ġ<![":3227,"usion":3228,"room":3229,",&":3230,"å¯":3231,"\\'":3232,"formation":3233,"101":3234,"CT":3235,"Ġmax":3236,"çľ":3237,"Ġcharset":3238,"ople":3239,"mini":3240,"navbar":3241,"èĢ":3242,"portal":3243,"\"],":3244,"1000":3245,"Ġwp":3246,"ĠBe":3247,"ĠÏĦ":3248,"Î¬":3249,"ĠØ®":3250,"Vy":3251,"-_-":3252,"WF":3253,"ãģĻ":3254,"stamp":3255,"equiv":3256,"\"],\"":3257,"visible":3258,"HP":3259,"pol":3260,"gan":3261,"pping":3262,"æł":3263,"El":3264,"din":3265,"IP":3266,"Man":3267,"Ġ()":3268,"Sp":3269,"plo":3270,"mc":3271,"speed":3272,"under":3273,"ĠĉĉĉĉĉĉĠĉĉĉĉĉĉ":3274,"offset":3275,"Ġ]":3276,"ĠX":3277,"Ø§Ùĩ":3278,"Ġlist":3279,"tre":3280,"700":3281,"xhr":3282,"iture":3283,"bbs":3284,"aut":3285,"æľĪ":3286,"uro":3287,"?\"":3288,"menuitem":3289,"ĠĉĉĉĉĉĠĉĉĉĉĉ":3290,"Res":3291,"fit":3292,"ork":3293,"ĠØ¬":3294,"tim":3295,"\":[\"":3296,"âĤ¬":3297,"ask":3298,"Cookie":3299,"ctr":3300,"rag":3301,"Ġcellspacing":3302,"ÛĮØ¯":3303,"Ġonly":3304,"ĠĠĠĠĠĉ":3305,"117":3306,"market":3307,"210":3308,"iP":3309,"Ġfirst":3310,"999":3311,"ship":3312,"};_.":3313,"jpeg":3314,"Key":3315,"pid":3316,"war":3317,"ross":3318,"Div":3319,"cursor":3320,"rate":3321,"bund":3322,"dark":3323,"119":3324,"Ð¾Ð³":3325,"Label":3326,"é¡":3327,"gaz":3328,"gov":3329,"Ġoff":3330,"][":3331,"Images":3332,"iss":3333,"ĠÂ":3334,"ãģ¾":3335,"fri":3336,"é¢":3337,"ĉĉĉĉĉĉĉ":3338,"fp":3339,"Ġinline":3340,"Cat":3341,"118":3342,"æĻ":3343,"wser":3344,"Banner":3345,"Ð¸Ðµ":3346,"fter":3347,"frame":3348,"ä¸Ĭ":3349,"');\">":3350,"ich":3351,"||\"":3352,"vn":3353,"kes":3354,"ãĢĮ":3355,"witter":3356,"çĶŁ":3357,"Login":3358,"\\\">":3359,"not":3360,"single":3361,"////////":3362,"van":3363,"Math":3364,"Ġlabel":3365,"XXXX":3366,"____":3367,"Ġ$('#":3368,"init":3369,"bt":3370,"ĠÙ¾":3371,"fly":3372,"Ġcellpadding":3373,"lus":3374,"loading":3375,"tore":3376,"(_.":3377,"wel":3378,"Error":3379,"exports":3380,"æ±":3381,"Ġhide":3382,"Ø§Ø³Øª":3383,"IL":3384,"357":3385,"/#":3386,"nR":3387,"çĶ¨":3388,"language":3389,"host":3390,"arguments":3391,"xl":3392,"104":3393,"popular":3394,"Nw":3395,"ãĢį":3396,".\"":3397,"Ġ></":3398,"attachment":3399,"bank":3400,"direct":3401,"ias":3402,"ĠAc":3403,"Ġrelative":3404,")&#":3405,"mF":3406,"photos":3407,"ffe":3408,"PR":3409,"Ġshow":3410,"Read":3411,"tis":3412,"GU":3413,"team":3414,"Ġxmlns":3415,"posts":3416,"wy":3417,"âĢĮ":3418,"3333":3419,"commen":3420,"FC":3421,"Ðļ":3422,"avatar":3423,"gos":3424,"nh":3425,"protocol":3426,"ĠØ¢":3427,"children":3428,"ĠMan":3429,"=\"\"></":3430,"ower":3431,"ula":3432,"ony":3433,"å¥³":3434,"JS":3435,"Fo":3436,"ĠMa":3437,"034":3438,"gam":3439,"outube":3440,"wg":3441,"ĠĉĉĉĉĉĉĉĉĠĉĉĉĉĉĉĉĉĉ":3442,"ĠSh":3443,"ev":3444,"Ð¾Ñģ":3445,"animation":3446,"èĥ":3447,"Article":3448,"çĲ":3449,"produ":3450,"ick":3451,"à¶":3452,"&&!":3453,"ç¾İ":3454,"website":3455,"Inter":3456,"|</":3457,";(+":3458,"Ġ18":3459,"Ġlanguage":3460,"oom":3461,"ĠĠĠĠĠĠĠĠĠĠĠĠĠĠĠĠĠĠĠĠĠĠĠĠĠĠĠĠĠĠĠĠĠĠĠĠĠĠĠĠĠĠĠĠĠ":3462,"stock":3463,"Mar":3464,"serif":3465,"001":3466,"('/":3467,"cloudfront":3468,"domain":3469,"æ¬":3470,"æĭ":3471,"Ġ};":3472,"LH":3473,"Ġsmall":3474,"Pre":3475,"æĽ":3476,"æīĭ":3477,"hite":3478,"favicon":3479,"è£":3480,"health":3481,"ĠAd":3482,"Ġapp":3483,"Ġim":3484,"Ġ22":3485,":{":3486,"Ġque":3487,"anel":3488,":!":3489,"network":3490,"interest":3491,"108":3492,"Request":3493,"sim":3494,"collapse":3495,"ire":3496,"HV":3497,"design":3498,"velo":3499,"IM":3500,"Layer":3501,"æŀ":3502,"pk":3503,")();":3504,"json":3505,"è¨":3506,"264":3507,"ĠHe":3508,"hn":3509,"ian":3510,"err":3511,"Ð¸Ð»":3512,"come":3513,"ãģ¯":3514,"=(":3515,")[":3516,"Ġbutton":3517,"Ġman":3518,"ĠonClick":3519,"à¹Ģ":3520,"ĠEnd":3521,"Action":3522,"Share":3523,"ife":3524,"username":3525,"ÏĮ":3526,"cho":3527,"ĠĠĠĠĠĠĠĠĠĠĠĠĠĠĠĠĠĠĠĠĠĠĠĠĠĠĠĠĠĠĠĠĠĠĠĠĠĠĠĠĠ":3528,"agen":3529,"ffi":3530,"ami":3531,"lips":3532,"Ġonmouseover":3533,"roup":3534,"movies":3535,"notic":3536,"Footer":3537,"trigger":3538,"travel":3539,"uY":3540,"148":3541,"sz":3542,"Index":3543,"amazon":3544,"support":3545,"æ´":3546,"munity":3547,"presen":3548,"Ġĉĉĉĉĉĉĉĉĉĉĉĉĉĉĉĉĉĉĉĉĉĉĉĉ":3549,"ouse":3550,"pixel":3551,"ST":3552,"stop":3553,"rank":3554,"Ġlazy":3555,"uld":3556,"collection":3557,"\",[":3558,"å®¶":3559,"ç´":3560,"lib":3561,"Ġhome":3562,"åħ¨":3563,"Tab":3564,"music":3565,"Mobile":3566,"{-":3567,"publish":3568,"Ð½Ð¾":3569,"player":3570,"BQ":3571,"Ġpe":3572,"orld":3573,"gar":3574,"Ġti":3575,"Set":3576,"Show":3577,"resize":3578,"ini":3579,"fill":3580,",Ā":3581,"arti":3582,"ĠÑĤ":3583,"æľī":3584,"ness":3585,"onomy":3586,"noti":3587,"CM":3588,"pty":3589,"ĠĠĉĉĉĉĉĉ":3590,"ìĿ":3591,"Eng":3592,"other":3593,"rt":3594,"lack":3595,"AAAAAA":3596,"ves":3597,"stream":3598,"tro":3599,"digital":3600,"Count":3601,"333":3602,"tlet":3603,"gp":3604,"euro":3605,"Ġoverflow":3606,"OW":3607,"AM":3608,"Ġnews":3609,"Ġdatetime":3610,"ration":3611,"less":3612,"cket":3613,"ÙĪÙĨ":3614,"Ġau":3615,"ĠFor":3616,"define":3617,"floor":3618,"tend":3619,"Shop":3620,"Start":3621,"older":3622,"secondary":3623,"Log":3624,"illi":3625,"Ġ@":3626,"ving":3627,"ĠĠĠĠĠĠĠĠĠĠĠĠĠĠĠĠĠĠĠĠĠĠĠĠĠĠĠĠĠĠĠĠĠĠĠ":3628,"XR":3629,"wide":3630,"Over":3631,"ãģ£":3632,"0644":3633,"ZD":3634,"times":3635,"Bar":3636,"CL":3637,"234":3638,"à·":3639,"Ġour":3640,"$('#":3641,"Ùī":3642,"tex":3643,"BF":3644,"{&":3645,"taxonomy":3646,"shed":3647,"Ø¶":3648,"Ãł":3649,"ener":3650,"Ġsrcset":3651,"ÛĮÙĨ":3652,"WV":3653,"Ġdel":3654,"ants":3655,"Ġcor":3656,"dep":3657,"zd":3658,"uration":3659,"fun":3660,"/'>":3661,"à¸ģ":3662,"TYPE":3663,"ÐĴ":3664,"And":3665,"Right":3666,"Pub":3667,"Ġuse":3668,"getTime":3669,"women":3670,"é¦":3671,"ä¸į":3672,"EB":3673,"erson":3674,"ĠĉĉĠĉ":3675,"State":3676,"ino":3677,"gor":3678,"Get":3679,",-":3680,"åŃĲ":3681,"dows":3682,"ĠEx":3683,"ners":3684,"resh":3685,"templates":3686,"CR":3687,"à¤°":3688,"wb":3689,"Ġevent":3690,"=_":3691,"leri":3692,"\":\"\\":3693,"BL":3694,">.":3695,"å°ı":3696,"Add":3697,"Reg":3698,"168":3699,"ĠĠĠĠĠĠĠĠĠĠĠĠĠĠĠĠĠĠĠĠĠĠĠĠĠĠĠĠĠĠĠĠĠĠĠĠĠĠĠĠĠĠĠĠĠĠĠĠĠĠĠĠĠĠĠĠĠĠĠĠĠĠĠĠĠĠĠĠĠĠĠĠĠĠĠĠĠĠĠĠĠĠĠĠĠĠĠĠĠĠĠĠĠĠĠĠĠĠĠĠĠĠĠĠĠĠĠĠĠĠĠĠĠĠĠĠĠĠĠĠĠĠĠĠĠĠĠĠĠĠĠĠĠĠĠĠĠĠĠĠĠĠĠĠĠĠĠĠĠĠĠĠĠĠĠĠĠĠĠĠĠĠĠĠĠĠĠĠĠĠĠĠĠĠĠĠĠĠĠĠĠĠĠĠĠĠĠĠĠĠĠĠĠĠĠĠĠĠĠĠĠĠĠĠĠĠĠĠĠĠĠĠĠĠĠĠĠĠĠĠĠĠĠĠĠĠĠĠĠĠĠĠĠĠĠĠĠĠĠĠĠĠĠĠĠĠĠĠĠĠĠĠĠĠĠĠĠĠĠĠĠĠĠĠĠĠĠĠĠĠĠĠĠĠĠĠĠĠĠĠĠĠĠĠĠĠĠĠĠĠĠĠĠĠĠĠĠĠĠĠĠĠĠĠĠĠĠĠĠĠĠĠĠĠĠĠĠĠĠĠĠĠĠĠĠĠĠĠĠĠĠĠĠĠĠĠĠĠĠĠĠĠĠĠĠĠĠĠĠĠĠĠĠĠĠĠĠĠĠĠĠĠĠĠĠĠĠĠĠĠĠĠĠĠĠĠĠĠĠĠĠĠĠĠĠĠĠĠĠĠĠĠĠĠĠĠĠĠĠĠĠĠĠĠĠĠĠĠĠĠĠĠĠĠĠĠĠĠĠĠĠĠĠĠĠĠĠĠĠĠĠĠĠĠĠĠĠĠĠĠĠĠĠĠĠĠĠĠĠĠĠĠĠĠĠĠĠĠĠĠĠĠĠĠĠĠĠĠĠĠĠĠĠĠĠĠĠĠĠĠĠĠĠĠĠĠĠĠĠĠĠĠĠĠĠĠĠĠĠĠĠĠĠĠĠĠĠĠĠĠĠĠ":3700,"stagram":3701,"fac":3702,"Ġhreflang":3703,"ney":3704,"Default":3705,"ï½Ĺï½Ĺ":3706,"ond":3707,"ãģĭ":3708,"Ġshare":3709,"230":3710,"280":3711,"Ġ17":3712,"163":3713,"Ð°Ñı":3714,"ãĤī":3715,"words":3716,"YS":3717,"inclu":3718,"XM":3719,"gir":3720,"ful":3721,"pes":3722,"fusion":3723,"Ð½Ð¸":3724,"Hw":3725,"Ġnode":3726,"éĥ":3727,"ird":3728,"127":3729,"Ġbottom":3730,"keting":3731,"à¹Ī":3732,"vw":3733,"ĠÐ±":3734,"spot":3735,"anti":3736,"Place":3737,"HE":3738,"More":3739,"mate":3740,"æľº":3741,"multi":3742,"åł":3743,"åķ":3744,"6666":3745,"Height":3746,"bin":3747,"WU":3748,"daily":3749,"quare":3750,"sizing":3751,"ile":3752,"han":3753,"Ġpr":3754,"scribe":3755,"ĠGoogle":3756,"310":3757,"åī":3758,"lyph":3759,"pubads":3760,"sole":3761,"cos":3762,"ource":3763,"company":3764,"Ġë":3765,"ssl":3766,"utf":3767,"ĠĠĠĠĠĠĠĠĠĠĠĠĠĠĠĠĠĠĠĠĠĠĠĠĠĠĠĠĠĠĠĠĠĠĠĠĠĠĠĠĠĠĠĠĠĠĠĠĠĠĠĠĠĠĠĠĠĠĠĠĠĠĠĠĠĠĠĠ":3768,"SP":3769,"Go":3770,"ratio":3771,"kar":3772,"stance":3773,")),":3774,"Ġhave":3775,"bur":3776,"Ser":3777,"mv":3778,"\"><!--":3779,"gray":3780,"We":3781,"rency":3782,"DATA":3783,"èĩ":3784,"èģ":3785,"mbol":3786,"series":3787,"Color":3788,"unit":3789,"æľ¬":3790,"pane":3791,"ĠEND":3792,"ier":3793,"ÙĪÙĦ":3794,"Ð¾Ð¹":3795,"Size":3796,"nes":3797,"Ġem":3798,"Ġemail":3799,"ĠÐ¿ÑĢ":3800,"253":3801,"165":3802,"ĠÐ·":3803,"());":3804,"Post":3805,"728":3806,"verti":3807,"Ġbg":3808,"dation":3809,"Ġpor":3810,"local":3811,";}#":3812,"]||":3813,"/-":3814,"cmd":3815,"Ðŀ":3816,"à¦°":3817,"!!":3818,"ED":3819,"acion":3820,"foto":3821,"ç¬":3822,"gc":3823,"CD":3824,"badge":3825,"Off":3826,"é«":3827,"program":3828,"ĠAll":3829,"bri":3830,"å¦":3831,"190":3832,"ost":3833,"admin":3834,")}),":3835,"ÅĤ":3836,"youtube":3837,"233":3838,"til":3839,"109":3840,"FR":3841,"Per":3842,"aw":3843,"nect":3844,"Ø§Ùģ":3845,"Array":3846,"à¥ĩ":3847,"gid":3848,"ĠĠĠĉĉ":3849,"bind":3850,"Jm":3851,"arge":3852,"Ġbold":3853,"lose":3854,"ii":3855,"aside":3856,"CO":3857,"Tra":3858,"124":3859,"175":3860,"ĠMay":3861,"375":3862,"Var":3863,"wc":3864,"ries":3865,"==\"":3866,"stu":3867,"dir":3868,"Â»":3869,"àµ":3870,"Ø±Ø¯":3871,"Ð»Ð°":3872,"ÐºÐ¸":3873,"å¤©":3874,"æ²":3875,"timestamp":3876,"browse":3877,"addClass":3878,"LI":3879,"ues":3880,"igator":3881,"cut":3882,"ķãĤ":3883,"spor":3884,"via":3885,"Lm":3886,"éĿ":3887,"PA":3888,">-->":3889,"visibility":3890,"Ġ===":3891,"\"Ā,Ā":3892,"door":3893,"summary":3894,"ĠSo":3895,"cker":3896,"æĸĩ":3897,"hY":3898,"pointer":3899,"Ġsearch":3900,"even":3901,"Slot":3902,"Bl":3903,"éĺ":3904,"ĠĉĠ":3905,"ben":3906,"à¥į":3907,"Ġ$(\"#":3908,"GA":3909,"106":3910,"ĠUn":3911,"350":3912,"uo":3913,"ift":3914,"167":3915,"Ni":3916,"UE":3917,"1605":3918,"tainment":3919,"ned":3920,"=\"#\"><":3921,"ĠØ§ÙĦÙħ":3922,"ages":3923,"102":3924,"logy":3925,"Ġ19":3926,"lash":3927,"ãĤ¿":3928,"&&\"":3929,"cion":3930,"ãĤĬ":3931,"features":3932,"éĸ":3933,"à«":3934,"lag":3935,"ora":3936,"CF":3937,"pics":3938,"pli":3939,"tren":3940,"à¯":3941,"className":3942,"angle":3943,"Ġ300":3944,"grey":3945,"CDATA":3946,"each":3947,"Î¿Ïħ":3948,"<![":3949,"ax":3950,"è¡Į":3951,"Ġwill":3952,"çĤ":3953,"curity":3954,"Ġfill":3955,"gd":3956,"404":3957,"quick":3958,"pack":3959,"Open":3960,"latest":3961,"jobs":3962,"270":3963,"tbody":3964,"gtm":3965,"ĠĠĠĠĠĠĠĠĠĠĠĠĠĠĠĠĠĠĠĠĠĠĠĠĠĠĠĠĠĠĠĠĠĠĠĠĠĠ":3966,"May":3967,"haber":3968,"åħ¬":3969,"åĭ":3970,"126":3971,"ĠĉĠĉĠĉĠĉ":3972,"ĠĉĉĠĉĉĉ":3973,"çķ":3974,"================":3975,"é£":3976,"æĦ":3977,"merce":3978,"ĠNews":3979,"ï¼Ī":3980,"}],":3981,"super":3982,"æ¸¸":3983,"kan":3984,"Message":3985,"\">[":3986,"stor":3987,"rome":3988,"ffffff":3989,"à¸ĩ":3990,"offer":3991,"wM":3992,"dk":3993,"point":3994,",_.":3995,"ZS":3996,"ify":3997,")<":3998,"ãĥ³ãĥ":3999,"chor":4000,"×Ļ":4001,"Ġimage":4002,"\">(":4003,"038":4004,"Rl":4005,"UL":4006,"fm":4007,"Ġsection":4008,"circle":4009,"standard":4010,"mag":4011,"Des":4012,"ĠĠĠĠĠĠĠĠĠĠĠĠĠĠĠĠĠĠĠĠĠĠĠĠĠĠĠĠĠĠĠĠĠĠ":4013,"Style":4014,"uble":4015,"serial":4016,"AAE":4017,"zM":4018,"Fg":4019,"154":4020,"lers":4021,"stats":4022,"/Ā":4023,"sex":4024,"')[":4025,"tools":4026,"Ow":4027,"CI":4028,"tels":4029,"=\"#\">":4030,"Ã³n":4031,"('<":4032,"jd":4033,"ï¼ī":4034,"istory":4035,"ball":4036,"wed":4037,"urs":4038,"Navigation":4039,"=\"+":4040,"ĠAnd":4041,"139":4042,"ĠMe":4043,"vron":4044,"365":4045,"ider":4046,"Bu":4047,"ĠApp":4048,"prev":4049,"bk":4050,"hel":4051,"152":4052,"Ø±Ø§ÙĨ":4053,"flash":4054,"Ñī":4055,"185":4056,"raft":4057,"server":4058,"Ð¾Ð±":4059,"<\\/":4060,"Ġtrack":4061,"Zm":4062,"137":4063,"ĠØ¨Ùĩ":4064,"Oy":4065,"figcaption":4066,"Zy":4067,"pers":4068,"æľĢ":4069,"opin":4070,"EA":4071,"åŁ":4072,"ĠØŃ":4073,"lug":4074,"HD":4075,"lp":4076,"dp":4077,"vil":4078,"\":[{\"":4079,"uss":4080,"fx":4081,"join":4082,">\\":4083,"ents":4084,"ras":4085,"components":4086,"JT":4087,"129":4088,"ints":4089,"bit":4090,"vir":4091,"ĠCo":4092,"ĠTr":4093,"Ġ'/":4094,"ĠÄĳ":4095,"master":4096,"*/":4097,"PH":4098,"147":4099,"åĪĨ":4100,"]\"":4101,"AAA":4102,"biz":4103,"Ġabout":4104,"åĩº":4105,"report":4106,"Î³":4107,"155":4108,"better":4109,"redirect":4110,"ä¾":4111,"register":4112,"111":4113,"wdG":4114,"sort":4115,"sl":4116,"dule":4117,"rec":4118,"ING":4119,"tball":4120,"Ø§Ø¹":4121,"UK":4122,"Property":4123,"OG":4124,"here":4125,"ãĢĢ":4126,"ndar":4127,"lyphicon":4128,"Check":4129,"pha":4130,"ĠNew":4131,"../":4132,"ĠĠĠĠĠĠĠĠĠĠĠĠĠĠĠĠĠĠĠĠĠĠĠĠĠĠĠĠĠĠĠĠĠĠĠĠĠĠĠĠĠĠĠĠĠĠĠĠĠ":4133,"buttons":4134,"Case":4135,"mac":4136,"ĠĠĠĠĠĠĠĠĠĠĠĠĠĠĠĠĠĠĠĠĠĠĠĠĠĠĠĠĠĠĠĠĠĠĠĠĠĠĠ":4137,"sn":4138,"spa":4139,"ric":4140,"Ġsu":4141,"your":4142,"zt":4143,"ĠMore":4144,"cks":4145,"260":4146,"205":4147,"presentation":4148,"WQ":4149,"Ġ--></":4150,"PT":4151,"156":4152,"Photo":4153,"izont":4154,"Ġease":4155,"DF":4156,"è¶":4157,"ä¼ļ":4158,"Group":4159,"134":4160,"unt":4161,"apply":4162,"green":4163,"ï¼Ł":4164,"asset":4165,"çīĪ":4166,"lipsis":4167,"vY":4168,"132":4169,"vy":4170,"exp":4171,"ĠĉĉĠĠĠ":4172,"xz":4173,"mV":4174,"fra":4175,"Ġqu":4176,"flu":4177,"çĶ»":4178,"ĠDi":4179,"áĥ":4180,"Ġet":4181,"Ġgo":4182,"']);":4183,"Ny":4184,"ÐµÐ¼":4185,"à¸¡":4186,"club":4187,"138":4188,"mium":4189,"8217":4190,"lG":4191,"conom":4192,"tems":4193,"ron":4194,"Ġeven":4195,"194":4196,"xp":4197,"ris":4198,"weather":4199,"Ġarticle":4200,"ols":4201,"136":4202,"kon":4203,"='+":4204,"à§ĩ":4205,"izontal":4206,"ĠYou":4207,"IA":4208,"tur":4209,"ped":4210,"cas":4211,"103":4212,"Ġwidget":4213,"formance":4214,"Ðł":4215,"ãĥ¬":4216,"isode":4217,"external":4218,"Ø°":4219,"bj":4220,"odd":4221,"vs":4222,"ãĥŃ":4223,"\"},":4224,"dem":4225,"ä¸ĭ":4226,"total":4227,"],[":4228,"Oi":4229,"lm":4230,"DD":4231,"make":4232,"Hand":4233,"ĠVideo":4234,"285":4235,"opt":4236,"LC":4237,"era":4238,"zen":4239,"è¾":4240,"deg":4241,"Cont":4242,"ĠNo":4243,"msg":4244,"allback":4245,"RT":4246,"Ġ200":4247,"Jo":4248,"Ġ...":4249,"Media":4250,"ice":4251,"slot":4252,";/":4253,"####":4254,"235":4255,"itial":4256,"ÙĬÙĨ":4257,"ĠĉĉĉĠĉĉĉĉ":4258,"handle":4259,"305":4260,"æµ·":4261,"+=":4262,"çĶµ":4263,"?(":4264,"non":4265,"itor":4266,"rosoft":4267,"Ġtime":4268,"$(\"#":4269,"zu":4270,"chevron":4271,"Ass":4272,"esti":4273,"selector":4274,"ague":4275,"ream":4276,"offi":4277,"adv":4278,"inset":4279,"symbol":4280,"Jy":4281,"system":4282,"cio":4283,"bn":4284,"Ġopacity":4285,"twe":4286,"Ġproduct":4287,"Body":4288,"real":4289,"à¸±":4290,"Ġrow":4291,"247":4292,"vin":4293,"subnav":4294,"ÐĲ":4295,"177":4296,"ical":4297,"Ġ[];":4298,"switch":4299,"ĠTe":4300,"480":4301,"plat":4302,"zo":4303,"Load":4304,"ÙĦÛĮ":4305,"822":4306,"à§į":4307,"Wrapper":4308,"/.":4309,"cla":4310,"landing":4311,"orite":4312,"900":4313,"Ġ);":4314,"ØĮ":4315,"Path":4316,"inst":4317,"Ġform":4318,"ifi":4319,"ise":4320,"Ġtra":4321,"mk":4322,"scripts":4323,"195":4324,"157":4325,"med":4326,"ãĤ«":4327,"Download":4328,"embed":4329,"},{}],":4330,"Ãª":4331,"QE":4332,"lished":4333,"159":4334,"run":4335,"counter":4336,"goods":4337,"ili":4338,"DOC":4339,"Ġtransparent":4340,"das":4341,"Ð¸Ð¹":4342,"bil":4343,"tablet":4344,"actions":4345,"Ġ40":4346,"Ġsli":4347,"namic":4348,"transparent":4349,"gl":4350,"èĤ":4351,"arn":4352,"ĠØ§ÛĮ":4353,"Ġtrans":4354,"Ġmain":4355,"169":4356,"HRpb":4357,"ĠOnline":4358,"à¹ī":4359,"204":4360,"today":4361,"Ġlt":4362,"OK":4363,"Head":4364,"alert":4365,"pad":4366,"ged":4367,"ald":4368,"à¹Ģà¸":4369,"Ġonline":4370,"baby":4371,"Ġstart":4372,"SA":4373,"china":4374,"Ð¾Ðº":4375,"Äĥ":4376,"Ġtypeof":4377,"192":4378,"Sa":4379,"editor":4380,"ÎŃ":4381,"cap":4382,"apps":4383,"')\"":4384,"Pa":4385,"ĠÙĤ":4386,"brands":4387,"ĠĠĠĠĉĉ":4388,"Bg":4389,"Ġformat":4390,"Ġvisible":4391,"Øº":4392,"delay":4393,"oman":4394,"Ġpointer":4395,"Ġpara":4396,"quote":4397,"ence":4398,"EE":4399,"×ķ":4400,"yahoo":4401,"week":4402,"ÐĿ":4403,"acon":4404,"Ġser":4405,"%</":4406,")|":4407,"ubble":4408,"Homepage":4409,"reci":4410,"ater":4411,"gbqf":4412,"kb":4413,"\">&#":4414,"boot":4415,"174":4416,"173":4417,"Ø§ÙĪ":4418,"ãĤ°":4419,"qa":4420,"gest":4421,"æ¯":4422,"uh":4423,"square":4424,"fade":4425,"Ġtry":4426,"265":4427,"rection":4428,"Ġbody":4429,"399":4430,"dos":4431,"ãĤ³":4432,"Vis":4433,"agement":4434,"As":4435,"åŃ¦":4436,"stack":4437,"uper":4438,"hs":4439,"188":4440,"MO":4441,"XJ":4442,"å£":4443,"UN":4444,"ÉĻ":4445,"ãĥĹ":4446,"DOCTYPE":4447,"Ð°Ðº":4448,"ĠIs":4449,"hk":4450,"æĺ¯":4451,"removeClass":4452,"pm":4453,"Logo":4454,"--><":4455,"SD":4456,"FA":4457,"äºĭ":4458,"337":4459,"Â±":4460,"HA":4461,"related":4462,"forums":4463,"ĠĠĠĠĠĠĠĠĠĠĠĠĠĠĠĠĠĠĠĠĠĠĠĠĠĠĠĠĠĠĠĠĠĠĠĠĠĠĠĠĠĠĠĠĠĠĠ":4464,"ches":4465,"Pg":4466,"signup":4467,"tik":4468,"zer":4469,"ĠØ¨Ø±":4470,"FB":4471,"upport":4472,"bp":4473,"222":4474,"ĠØ£":4475,"cher":4476,"Ġone":4477,"é«ĺ":4478,"Ð¸Ð¸":4479,"vision":4480,"'),":4481,"san":4482,"340":4483,"ãģĬ":4484,"vcHRpb":4485,"ÑĢÑĥ":4486,"IiB":4487,"èª":4488,"ugh":4489,"contents":4490,"fication":4491,"åľ¨":4492,"Ġonmouseout":4493,"ience":4494,"\"}}":4495,"Password":4496,"Ġnormal":4497,"ĠTi":4498,"Ġge":4499,"237":4500,"Can":4501,"Ġcheck":4502,"money":4503,"qi":4504,"Ã«":4505,"ĠLink":4506,"national":4507,"224":4508,"mos":4509,"lie":4510,"Spe":4511,"face":4512,"ãĤ·":4513,"fron":4514,"199":4515,"----------------":4516,"ç¬¬":4517,"vas":4518,"ĠĠĠĠĠĠĠĠĠĉ":4519,"dam":4520,"gress":4521,"trending":4522,"Î®":4523,"Ġà¸":4524,"133":4525,"Ðľ":4526,"ona":4527,"hash":4528,"stars":4529,"Option":4530,"edge":4531,"credit":4532,"Pi":4533,"pagin":4534,"UI":4535,"143":4536,"Carousel":4537,"]).":4538,"guide":4539,"Ġ2015":4540,"ãĤ¸":4541,"çŁ":4542,"236":4543,"ham":4544,"yi":4545,"ames":4546,"Ug":4547,"dash":4548,"rad":4549,"stru":4550,"itok":4551,"Ġ--><":4552,"KC":4553,"opy":4554,"parse":4555,"You":4556,"ĠPri":4557,"ĠMar":4558,"ãģĵ":4559,"ÐµÐ¹":4560,"slideshow":4561,"ÐµÐ´":4562,"WS":4563,"Ġmobile":4564,"nowrap":4565,"èĥ½":4566,"locale":4567,"deli":4568,"etch":4569,"Java":4570,"åĬ¨":4571,"jx":4572,"Ð¾ÑģÑĤ":4573,"zed":4574,"kom":4575,"alf":4576,"å¸Ĥ":4577,"Part":4578,"rgba":4579,"util":4580,"éĩĳ":4581,"]+":4582,"plan":4583,"raquo":4584,"Ġcolumns":4585,"à¦¿":4586,"Nl":4587,"rk":4588,"ĠPC":4589,"cade":4590,"720":4591,"tai":4592,"params":4593,"Ġund":4594,"Æ°":4595,"ros":4596,"lz":4597,";'>":4598,"KT":4599,"Detail":4600,"ĠCol":4601,"keywords":4602,".\",\"":4603,"lnk":4604,"158":4605,"Ïī":4606,"ç¥":4607,"cept":4608,"vg":4609,"betterT":4610,"UTF":4611,"ĠTV":4612,"2000":4613,"ilable":4614,"Ä±n":4615,"yan":4616,"=\"&":4617,"='{\"":4618,"cmV":4619,"har":4620,"Ġ{{":4621,"å¤ļ":4622,"tie":4623,"ãĥ¡":4624,"Ð»Ñı":4625,"xi":4626,"nu":4627,"personal":4628,"lw":4629,"Ġpull":4630,"164":4631,"ategories":4632,"187":4633,"ĠĀ\"Ā":4634,"Ġ%":4635,"ente":4636,"sky":4637,"Lz":4638,"dian":4639,"rance":4640,"chen":4641,"Ġlevel":4642,"éŁ":4643,"lr":4644,"moji":4645,"Ã´":4646,"356":4647,"ĠHome":4648,"Ġuser":4649,"suc":4650,"ria":4651,"ÄŁ":4652,"ØªØ±":4653,"biB":4654,"åıĳ":4655,"tube":4656,");}":4657,"153":4658,"Ġ$('.":4659,"dialog":4660,"299":4661,"ĠÑĥ":4662,"âĢ¦":4663,"])":4664,"viewport":4665,"rel":4666,"])}":4667,"ä¸ļ":4668,"GR":4669,"ĠRo":4670,"Auto":4671,"Ġcode":4672,"die":4673,"ç¤":4674,"Section":4675,"Ġ28":4676,"ĠĀ\"Ā\"Ā,Ā":4677,"stories":4678,"Fwww":4679,"Ġdes":4680,"Area":4681,"ĠService":4682,"166":4683,"term":4684,"bel":4685,"122":4686,"vest":4687,"184":4688,"chi":4689,"åľ°":4690,"ç®":4691,"EG":4692,"HT":4693,")};_.":4694,"èĪ":4695,"229":4696,"ĠĉĉĉĉĉĉĉĠĉĉĉĉĉĉĉ":4697,"åĬł":4698,"Ġ})();":4699,"Int":4700,"ä½ľ":4701,"Yz":4702,"Pr":4703,"ios":4704,"bul":4705,"èĬ":4706,"èī":4707,"Ġàª":4708,"')\">":4709,"ĠĉĉĉĉĉĉĉĉĠĉĉĉĉĉĉĉĉĉĠĉĉĉĉĉĉĉĉĠĉĉĉĉĉĉĉĉĉ":4710,"\\\":\\\"":4711,"Ġago":4712,"platform":4713,"SU":4714,"%}.":4715,"noindex":4716,"docs":4717,"require":4718,"fixed":4719,"kw":4720,"ĠSta":4721,"capt":4722,"flyout":4723,"Å¾":4724,"Btn":4725,"à¸¢":4726,"Ġbro":4727,"bundles":4728,"Dis":4729,"Enter":4730,"Ø±ÙĬ":4731,"ÚĨ":4732,"ĠĠĠĠĠĠĠĠĠĠĠĠĠĠĠĠĠĠĠĠĠĠĠĠĠĠĠĠĠĠĠĠĠĠĠĠĠĠĠĠĠĠĠĠĠĠĠĠĠĠĠĠĠ":4733,"intern":4734,"Ġ+=":4735,"à¸µ":4736,"198":4737,"256":4738,"round":4739,"149":4740,"ij":4741,"ãĥŀ":4742,"pw":4743,"cg":4744,"ÙĪÙħ":4745,"instagram":4746,"\"!=":4747,"00000":4748,"xhtml":4749,"Fil":4750,"Ġpop":4751,"176":4752,"ãĤĵ":4753,"outer":4754,"settings":4755,"Please":4756,"()}":4757,"obj":4758,"dra":4759,"WE":4760,"AK":4761,"IR":4762,"306":4763,"PL":4764,"244":4765,"AAAAAAAAAAAAAAAA":4766,"quality":4767,"topics":4768,"auty":4769,"Ġwhite":4770,"xxx":4771,"($":4772,"ense":4773,"fut":4774,"=''":4775,"Ġcolspan":4776,"Ã±":4777,"pg":4778,"arrowim":4779,"Custom":4780,"Ġ\"/":4781,"213":4782,"Star":4783,"275":4784,"Doc":4785,"Mode":4786,"Ä°":4787,"Ġcar":4788,"loaded":4789,"ĠDo":4790,"207":4791,"illa":4792,"AV":4793,"bre":4794,"ĠØ§Ø²":4795,"dri":4796,"jia":4797,"translate":4798,"Ð¢":4799,"fw":4800,"iddle":4801,"304":4802,"ãĤĤ":4803,"coup":4804,"è½¦":4805,"Îĳ":4806,"Facebook":4807,"ÏĥÏĦ":4808,"identi":4809,"298":4810,"lik":4811,"strap":4812,"178":4813,"choo":4814,"people":4815,"Contact":4816,"EC":4817,"ĠĉĉĠ":4818,"666":4819,"LD":4820,"Ġ'',":4821,"Ġcoun":4822,"nc":4823,"ÐµÐº":4824,"marketing":4825,"pull":4826,"196":4827,"random":4828,"horizontal":4829,"ÐĶ":4830,"nor":4831,"Å¡":4832,"201607":4833,"ĠQ":4834,"201":4835,":\"\\":4836,"215":4837,"=Ā":4838,"ÐµÑģ":4839,"ĠÙħÙĨ":4840,"commerce":4841,"Ġdir":4842,"ĠĠĠĠĠĠĠĠĠĠĠĠĠĠĠĠĠĠĠĠĠĠĠĠĠĠĠĠĠĠĠĠĠĠĠĠĠĠĠĠĠĠ":4843,"Cur":4844,"Ġfooter":4845,"kh":4846,"dition":4847,"279":4848,"magaz":4849,"571":4850,"ĠFe":4851,"Ð»Ð¸":4852,"ov":4853,"appendChild":4854,"EF":4855,"yreg":4856,"çĪ":4857,"à¥Ģ":4858,"NO":4859,"Ġstat":4860,"Gu":4861,"Ġtc":4862,"pinterest":4863,"ĠĠĉĉĉĉĉĉĉ":4864,"245":4865,"Ġ21":4866,"REUM":4867,"246":4868,"ĠFacebook":4869,"227":4870,"DQo":4871,"chat":4872,"bor":4873,"Ø«":4874,"Ori":4875,"codeUR":4876,"\":{":4877,"Play":4878,"cky":4879,")){":4880,"ÄĻ":4881,"reate":4882,"omen":4883,"elve":4884,"manga":4885,"navigator":4886,"spacer":4887,"208":4888,"295":4889,"ĠYour":4890,"ados":4891,"ãĤµ":4892,"Ta":4893,"åħ¥":4894,"scr":4895,"two":4896,")&&":4897,"uf":4898,"unce":4899,"rols":4900,"ä¿¡":4901,"ĠĉĉĉĉĠĉĉĉĉĉ":4902,"MM":4903,"189":4904,"à¸¥":4905,"BY":4906,"Ġframe":4907,"lights":4908,"186":4909,"æĪĳ":4910,"shion":4911,"expan":4912,"èĭ":4913,"à¸§":4914,"296":4915,"checked":4916,"CQkJ":4917,")}}":4918,"åķĨ":4919,"281":4920,"Ġfo":4921,"ours":4922,"root":4923,"zm":4924,"ĠWe":4925,"æĸ¹":4926,"season":4927,"Ā=Ā":4928,"éħ":4929,")||":4930,"Ø¢":4931,"Mon":4932,"Ġrequi":4933,"/*":4934,"Ġop":4935,"!\"":4936,"Qg":4937,"Ba":4938,"rm":4939,"pY":4940,"tan":4941,"ĠÐ³":4942,"ffect":4943,"aring":4944,"×ķ×":4945,"290":4946,"duration":4947,"loc":4948,"æĥħ":4949,"privacy":4950,"ĠTra":4951,"ln":4952,"Ġfree":4953,"rence":4954,"ĠĉĠĉĉ":4955,"urniture":4956,"dz":4957,"jc":4958,"\")[":4959,"Ġbo":4960,"lazyload":4961,"tY":4962,"çĲĨ":4963,"partner":4964,"ays":4965,"æģ":4966,"ario":4967,"ÙĦÙħ":4968,"lGOD":4969,"Az":4970,"disc":4971,"æĮ":4972,"Links":4973,"long":4974,"((":4975,"Ci":4976,"dern":4977,"LL":4978,"Ð°Ð¼":4979,"537":4980,"subscribe":4981,"ĠIm":4982,"ati":4983,"äºĨ":4984,"rev":4985,"238":4986,"Watch":4987,"substring":4988,"Ġlinear":4989,"%,":4990,"Ãº":4991,"currency":4992,"Î¹Îº":4993,"288":4994,"TH":4995,"èĩª":4996,";_.":4997,"Ġ'';":4998,"wan":4999,"Ġany":5000,"ador":5001,"à¤¿":5002,"Field":5003,"Bot":5004,"ida":5005,")&&(":5006,"239":5007,"214":5008,"Ā/Ā":5009,"obs":5010,"TS":5011,"lio":5012,"tage":5013,"serv":5014,"most":5015,"football":5016,"307":5017,"ley":5018,"tivity":5019,"Ġrgb":5020,"ĠĠĠĠĠĠĠĠĠĠĠĠĠĠĠĠĠĠĠĠĠĠĠĠĠĠĠĠĠĠĠĠĠĠĠĠĠĠĠĠĠĠĠĠĠĠĠĠĠĠĠĠĠĠĠĠĠ":5021,"åĢ":5022,"ĠThis":5023,"228":5024,"ç¨":5025,"kz":5026,"à¸Ķ":5027,"property":5028,"çŃ":5029,"bum":5030,"ĠĠĠĠĠĠĠĠĠĠĠĠĠĠĠĠĠĠĠĠĠĠĠĠĠĠĠĠĠĠĠĠĠĠĠĠĠĠĠĠĠĠĠ":5031,"vider":5032,"Na":5033,"äº§":5034,"deals":5035,"dynamic":5036,"success":5037,"Aw":5038,"gun":5039,"Î´":5040,"248":5041,"qq":5042,"lj":5043,"Ã£":5044,"cour":5045,"<!":5046,"1999":5047,"ÑģÑĤÐ²":5048,"åģ":5049,"VS":5050,"IGN":5051,"+%":5052,"206":5053,"Store":5054,"WA":5055,"ÛĮØ±":5056,"lgb":5057,"ess":5058,"ĠĠĠĠĠĠĠĠĠĠĠĠĠĠĠĠĠĠĠĠĠĠĠĠĠĠĠĠĠĠĠĠĠĠĠĠĠĠĠĠĠĠĠĠĠĠĠĠĠĠĠĠĠĠĠĠĠĠĠĠĠĠĠĠĠĠĠĠĠĠĠĠĠĠĠĠ":5059,"ĠÐ°":5060,"uz":5061,"2012":5062,"ãģı":5063,"Ġmy":5064,"rub":5065,"FFFFFF":5066,"Ġinstance":5067,"depth":5068,"ola":5069,"×Ļ×":5070,"ĠUp":5071,":.":5072,"olution":5073,"){.":5074,"291":5075,"gf":5076,"209":5077,"ken":5078,"çµ":5079,"leaf":5080,"=\\":5081,"uml":5082,"eacute":5083,"ĠAl":5084,"arts":5085,"Rh":5086,"ĠĠĠĠĠĠĠĠĉ":5087,"stry":5088,"temp":5089,"Ġfil":5090,"newsletter":5091,"Ter":5092,"vL":5093,"ĠEn":5094,"ystem":5095,"179":5096,"Feature":5097,"connect":5098,"Â·":5099,"ICom":5100,"bubble":5101,"ÙĬØ¯":5102,"Il":5103,"edit":5104,"Ġfl":5105,"XB":5106,"Ð°Ð¹":5107,"Ø±Ø¨":5108,"separ":5109,"entertainment":5110,"pal":5111,"MP":5112,"Free":5113,"å®ī":5114,"brary":5115,"257":5116,"IComponent":5117,"cri":5118,"codeURIComponent":5119,"aol":5120,"food":5121,"community":5122,"asy":5123,"216":5124,"Ġreg":5125,"Ġcurrent":5126,"far":5127,"uol":5128,"XN":5129,"foot":5130,"Ø¨Ø±":5131,"nds":5132,"à±":5133,"stan":5134,"226":5135,"Ġ90":5136,"customer":5137,"tiny":5138,"197":5139,"å·¥":5140,"wards":5141,"ĠĠĠĠĠĠĠĠĠĠĠĠĠĉ":5142,"åĥ":5143,"If":5144,"Oj":5145,"395":5146,"imgs":5147,"kp":5148,"Jl":5149,"è·":5150,"Ġra":5151,"Ġ\"\";":5152,">');":5153,"ãģį":5154,"users":5155,"shopping":5156,"apis":5157,"='//":5158,"Ġder":5159,"405":5160,"mr":5161,"ulture":5162,"navi":5163,"Widget":5164,"aws":5165,"Ġheader":5166,"aci":5167,"Sw":5168,"scho":5169,"Ġwas":5170,"good":5171,"à¤¨":5172,"Mod":5173,"ĠâĢĵ":5174,"includes":5175,"573":5176,"ante":5177,"Ġcorrespon":5178,"450":5179,"çĦ":5180,"lgbx":5181,"Ge":5182,"ttp":5183,"lGODlh":5184,"Number":5185,"counts":5186,"Agent":5187,"æĽ´":5188,"254":5189,"åĲĪ":5190,"Ġfin":5191,"ĠCar":5192,"ĠÚ¯":5193,"BAE":5194,"may":5195,"%\">":5196,"rotate":5197,"249":5198,"ĠUS":5199,"Ġĉĉĉĉĉĉĉĉĉĉĉĉĉĉĉĉĉ":5200,"MB":5201,"267":5202,"NG":5203,"(-":5204,"wt":5205,"subtitle":5206,"XY":5207,"Ġ\"\",":5208,"met":5209,"blogs":5210,"íķ":5211,"Em":5212,"HQ":5213,"argeting":5214,"fon":5215,"çĤ¹":5216,"refer":5217,"ĠÙĬ":5218,"empla":5219,"0645":5220,"sans":5221,"books":5222,"It":5223,"Tracker":5224,"param":5225,"fast":5226,"response":5227,"RA":5228,"spi":5229,"Ġlar":5230,"Ġsa":5231,"cnt":5232,"380":5233,"ĠÐ¡":5234,"à¸´":5235,"10000":5236,"}\"":5237,"ults":5238,"Holder":5239,"fonts":5240,"Zh":5241,"pur":5242,"NREUM":5243,"Ġstatus":5244,"Ġcorresponding":5245,"ĠWeb":5246,"gal":5247,"'});":5248,"inc":5249,"cessories":5250,"india":5251,"HB":5252,"unch":5253,"Ġ32":5254,"xL":5255,"xtra":5256,"ĠÙģÙĬ":5257,"cine":5258,"é¦ĸ":5259,"Ø§Ø´":5260,"Ġĉĉĉĉĉĉĉĉĉĉĉĉĉĉĉĉĉĉ":5261,"vert":5262,"219":5263,"FE":5264,"ends":5265,"Ġinstanceof":5266,"blur":5267,"comm":5268,"Ġ23":5269,"Ġ(!":5270,"æĹ¶":5271,"pot":5272,"SV":5273,"empty":5274,"Ġweb":5275,"303":5276,"çī¹":5277,"ãĤŃ":5278,":$":5279,"performance":5280,"ĠFree":5281,"Pe":5282,"gamenu":5283,"Ðĺ":5284,"\",\"\",\"":5285,"Ġservice":5286,"ĠPoli":5287,"ĠĉĉĉĠĉĉ":5288,"cards":5289,"ãĥĭ":5290,"spec":5291,"lead":5292,"valid":5293,"gine":5294,"setTimeout":5295,"277":5296,"imer":5297,"Äħ":5298,"hich":5299,"mission":5300,"accessories":5301,"noticias":5302,"About":5303,"éķ":5304,"ãĢĭ":5305,"297":5306,"ply":5307,"nie":5308,"fluid":5309,"Ġsho":5310,"vote":5311,"ãĤĮ":5312,"gw":5313,"æ¼":5314,"ĠviewBox":5315,"æ¥":5316,"secure":5317,"Zi":5318,"Trans":5319,"MY":5320,"month":5321,"Cart":5322,"ĠĠĠĠĠĠĠĠĠĠĠĠĠĠĠĠĠĠĠĠĠĠĠĠĠĠĠĠĠĠĠĠĠĠĠĠĠĠĠĠĠĠĠĠĠĠĠĠĠĠĠĠĠĠĠĠĠĠĠĠĠĠĠĠĠĠĠĠĠĠĠĠ":5323,"actu":5324,"Ð½ÑĭÐµ":5325,"attachEvent":5326,"esp":5327,"XT":5328,"but":5329,"pati":5330,"OU":5331,"syn":5332,"calendar":5333,"=\"./":5334,"year":5335,"ãĢĬ":5336,"fashion":5337,"roke":5338,"look":5339,"clip":5340,"172":5341,"reviews":5342,"cele":5343,"=\"[":5344,"Ġ60":5345,"335":5346,"é»":5347,"Ġunder":5348,"elvetica":5349,"kk":5350,"Ġ<!--<":5351,"Pass":5352,"xh":5353,"_%":5354,"seo":5355,"lf":5356,"ender":5357,"å¼Ģ":5358,"tered":5359,"ĠLa":5360,"Comp":5361,"dmF":5362,"121":5363,"åĴ":5364,"ĠHD":5365,"æ·":5366,"Ġ{};":5367,"ĠÏĢ":5368,"ä½ĵ":5369,"bir":5370,"âĢ¬":5371,"verse":5372,"Ġ26":5373,"rp":5374,"Ġnow":5375,"abbr":5376,"required":5377,"Iy":5378,"ppe":5379,"Port":5380,"Fin":5381,"336":5382,"Ò»":5383,"unk":5384,"gY":5385,"Ġsans":5386,"ç²":5387,"asi":5388,"ĠĠĠĠĠĉĉ":5389,"(#":5390,"tar":5391,"adcast":5392,"åĲį":5393,"nm":5394,"Ġautocomplete":5395,"ima":5396,"ÛĮÙħ":5397,"KG":5398,"AU":5399,"ĠĉĉĉĉĉĉĉĉĠĉĉĉĉĉĉĉĉ":5400,"sun":5401,"lines":5402,"hape":5403,"Twitter":5404,"used":5405,"JavaScript":5406,"console":5407,"TB":5408,"Select":5409,"rb":5410,"west":5411,"345":5412,"Zj":5413,"Ġcache":5414,"Teaser":5415,"ez":5416,"IB":5417,"ification":5418,"]),":5419,"\")}":5420,"addService":5421,"áŀ":5422,"progress":5423,"policy":5424,"iphone":5425,"ÛĮÚ©":5426,"çī©":5427,"lGODlhAQ":5428,"Pos":5429,"Analytics":5430,"wLj":5431,"logos":5432,"Blog":5433,"sha":5434,"....":5435,"330":5436,"slug":5437,"YWx":5438,"ĠÐ·Ð°":5439,"Vi":5440,"Ġui":5441,"amsung":5442,"don":5443,"åĻ":5444,"çģ":5445,"****************":5446,"wood":5447,"::-":5448,"ĠÐŁ":5449,"queue":5450,"Ġdu":5451,"terms":5452,"Ly":5453,"wordpress":5454,"libs":5455,"Ġam":5456,"rak":5457,"Æ·":5458,".<":5459,"203":5460,"Ðĳ":5461,"258":5462,"browser":5463,"defineSlot":5464,"ym":5465,"ĠÂ«":5466,"Ġelement":5467,"Items":5468,"á»ĩ":5469,"Fa":5470,"355":5471,"åĽ¾":5472,"tarea":5473,"Ġclick":5474,"nology":5475,"bon":5476,"Jzc":5477,"lon":5478,"ä»¶":5479,"ster":5480,"delete":5481,"ãģĨ":5482,"xe":5483,"lvb":5484,"LS":5485,"Submit":5486,"243":5487,"ĠRes":5488,"serie":5489,"megamenu":5490,"ĠÐ¾ÑĤ":5491,"Ġĉĉĉĉĉĉĉĉĉĉĉĉĉĉĉĉĉĉĉ":5492,"ĠHo":5493,"uan":5494,"Ġxlink":5495,"Ġcustom":5496,"æı":5497,"EO":5498,"sug":5499,"tz":5500,"indows":5501,"resiz":5502,"Ġ27":5503,"Ġ\\\"":5504,"cing":5505,"English":5506,"simple":5507,"LT":5508,"å¤ĸ":5509,"åł±":5510,"LO":5511,"ĠUs":5512,"308":5513,"Ġvo":5514,"intro":5515,"general":5516,"ç©":5517,"poster":5518,"vate":5519,"serve":5520,"lem":5521,"ways":5522,"406":5523,"project":5524,"æĴ":5525,"æķ°":5526,"çł":5527,"iler":5528,"Ja":5529,"'t":5530,"è£ħ":5531,"ral":5532,"Ġpub":5533,"innerHTML":5534,"555":5535,"ĉĉĉĉĉĉĉĉĉĉĉĉĉĉĉĉĉĉĉĉĉĉĉĉĉĉĉĉĉĉĉĉĉĉĉĉĉĉĉĉĉĉĉĉĉĉĉĉĉĉĉĉĉĉĉĉĉĉĉĉĉĉĉĉ":5536,"history":5537,"bG":5538,"wx":5539,"Ñį":5540,"ÐµÐ²":5541,"bh":5542,"JzcD":5543,"Ġher":5544,"cross":5545,"Display":5546,"\\\"><":5547,"Thumb":5548,"dataLayer":5549,"Origin":5550,"'\"":5551,"aster":5552,"recent":5553,"Ø§Ø¦":5554,"lands":5555,"Ø¸":5556,"ining":5557,"183":5558,"æĪĲ":5559,"Ġaccount":5560,"kg":5561,"KS":5562,"hotel":5563,"Hx":5564,"Ġ;":5565,">Ā":5566,"??":5567,"Ð¸Ð°Ð»":5568,"Ġ!==":5569,"Ð°ÑĤÑĮ":5570,"ĠVer":5571,"Help":5572,"bat":5573,"dj":5574,"bootstrap":5575,"044":5576,"VD":5577,"byline":5578,"rie":5579,"rio":5580,"male":5581,"212":5582,"Ġq":5583,"ĉĠĉ":5584,"istration":5585,"uber":5586,"gate":5587,"Vo":5588,"asket":5589,"Ð¸Ð²":5590,"done":5591,"æŁ":5592,"å§":5593,"print":5594,"Promo":5595,"Ø§ÙĤ":5596,"Slide":5597,"shortcut":5598,"Bh":5599,"mor":5600,"rolling":5601,"ãĥĸ":5602,"268":5603,"Position":5604,"ĠPorn":5605,":;\"":5606,"setAttribute":5607,"tips":5608,"BJ":5609,"åĮħ":5610,"ĠArray":5611,"mil":5612,"ront":5613,"para":5614,"ALAAAAAA":5615,"259":5616,"ords":5617,"Learn":5618,"redit":5619,"avi":5620,"hic":5621,"éĶ":5622,"287":5623,"142":5624,"1024":5625,"Book":5626,"ÙĩØ§ÛĮ":5627,"Lower":5628,"tk":5629,"lege":5630,"bx":5631,"eVar":5632,"Ġtable":5633,"131":5634,"double":5635,"315":5636,"ãĤ¨":5637,"annel":5638,"elle":5639,"\":\"\\/":5640,"columns":5641,"è°":5642,"Â¡":5643,"enable":5644,"ĉĉĉĉĉĉĉĉĉ":5645,"rough":5646,"Ġmon":5647,"Config":5648,"ditional":5649,"Mic":5650,"pagination":5651,"ĠÎº":5652,"='#":5653,"tify":5654,"vip":5655,"Ġdefault":5656,"uest":5657,"oth":5658,"tour":5659,"kZ":5660,"éĢļ":5661,"ĠPre":5662,"Ġscroll":5663,"arcade":5664,"ĠâĢª":5665,"Ġinitial":5666,"vat":5667,"Ġri":5668,"Ġgrid":5669,"Mark":5670,"Mu":5671,"wear":5672,"667":5673,"ders":5674,"ãĥ¥":5675,"II":5676,"ags":5677,"teen":5678,"ä¸ī":5679,"Account":5680,"getAttribute":5681,"pagespeed":5682,"andy":5683,"Ġbgcolor":5684,"cars":5685,"èĲ":5686,"åĻ¨":5687,"aj":5688,"354":5689,"/></":5690,"Panel":5691,"Ġnowrap":5692,"album":5693,"Î¹Î±":5694,"Ġes":5695,"With":5696,"listing":5697,"sal":5698,"ãģĤ":5699,"save":5700,"Ġ250":5701,"ĠGu":5702,"Ð¸Ð¼":5703,"tir":5704,"ights":5705,"ç±":5706,"opinion":5707,"Ø§Ø®":5708,"TW":5709,"love":5710,"Nvb":5711,"ines":5712,"alk":5713,"pment":5714,"è©":5715,"EL":5716,"vol":5717,"lam":5718,"recommen":5719,"Ġvertical":5720,"ici":5721,"å¿ĥ":5722,"284":5723,"uck":5724,"374":5725,"XV":5726,"åı°":5727,"PU":5728,"alid":5729,"slo":5730,"ropdown":5731,"zL":5732,"cht":5733,"Document":5734,"oot":5735,"Ġ/.":5736,"AHO":5737,"xM":5738,"gm":5739,"Ġasync":5740,"ŀĭ":5741,"release":5742,"ÙĩØ§":5743,"shared":5744,"storage":5745,"camp":5746,"Ġve":5747,"289":5748,"ĠÎ±":5749,"364":5750,"ä¹ĭ":5751,"xb":5752,"anime":5753,"BAAE":5754,"yb":5755,"urance":5756,"Da":5757,"wvb":5758,"à¤Ĥ":5759,"refe":5760,"Ø§ÙĦÙħ":5761,"fieldset":5762,"pat":5763,"æ¡":5764,"ĠÑĢÐ°":5765,"cra":5766,"outline":5767,"ĠÙħÛĮ":5768,"ÑģÑı":5769,"åĨħ":5770,"Ïĩ":5771,"rf":5772,"ations":5773,"åĭķ":5774,"QQ":5775,"lation":5776,"Ġonerror":5777,"AHOO":5778,"Ay":5779,"Brand":5780,"à¦¨":5781,"×¨":5782,"////////////////":5783,"Stor":5784,"learn":5785,"compare":5786,"151":5787,"327":5788,"CN":5789,"WW":5790,"LowerCase":5791,"Ġfeature":5792,"ĠÑĩ":5793,"Ads":5794,"fre":5795,"BO":5796,"ĠCan":5797,"internal":5798,"çĥ":5799,"hid":5800,"Ve":5801,"YXJ":5802,"hile":5803,"copyright":5804,"Ġdie":5805,"premium":5806,"=\"{{":5807,"chooser":5808,"316":5809,"smart":5810,"rac":5811,"({'":5812,"/\"></":5813,"Map":5814,"yc":5815,"usa":5816,"370":5817,"ÐµÐ½ÑĤ":5818,"Mouse":5819,"anking":5820,"Input":5821,"269":5822,";'":5823,"Ø§ØŃ":5824,"tx":5825,"Lang":5826,";'><":5827,"DS":5828,"FL":5829,">|</":5830,"ĠØ¨Ø§":5831,"Slider":5832,"hm":5833,"wv":5834,"ĠCON":5835,"ican":5836,"=\"{":5837,"toLowerCase":5838,"entre":5839,"internet":5840,"qc":5841,"Zl":5842,"arab":5843,"emit":5844,"see":5845,"nivers":5846,"æľį":5847,"elem":5848,"Ð°Ð²":5849,"Cg":5850,"éĤ":5851,"Ġlos":5852,"Ġmar":5853,"æį":5854,"ÙĬØ±":5855,"RU":5856,"eni":5857,"Ġhere":5858,"km":5859,"\">|</":5860,"ÏĨ":5861,"++){":5862,"åħĥ":5863,"åĿ":5864,"urnal":5865,"Ġres":5866,"Ð½ÑĭÐ¹":5867,"385":5868,"eno":5869,"à¯į":5870,"ring":5871,"338":5872,"Ġho":5873,"omn":5874,"223":5875,"uegos":5876,"Big":5877,"Ġbu":5878,"Ġversion":5879,"Small":5880,"nable":5881,"=\"../":5882,"uZ":5883,"lub":5884,"162":5885,"girl":5886,"444":5887,"Ġactive":5888,"286":5889,"TO":5890,"lect":5891,"userAgent":5892,"309":5893,"This":5894,"/\",\"":5895,"Selector":5896,"who":5897,"Îķ":5898,"Ġfull":5899,"ĠØ²":5900,"Ġsur":5901,"Close":5902,"subject":5903,"ALAAAAAABAAE":5904,"vide":5905,"shipping":5906,"ĠĠĠĠĠĠĠĠĠĠĠĠĠĠĠĠĠĠĠĠĠĠĠĠĠĠĠĠĠĠĠĠĠĠĠĠĠĠĠĠĠĠĠĠĠĠĠĠĠĠĠĠĠĠĠĠĠĠĠĠĠĠĠĠĠĠĠĠĠĠĠĠĠĠĠĠĠĠĠĠ":5907,"ulo":5908,"ĠĉĠĠĠĠĠĠĠ":5909,"titu":5910,"rtl":5911,"ĠÐ»":5912,"manager":5913,"ĠÐĴ":5914,"dan":5915,"àµį":5916,"Ġcont":5917,"ike":5918,"oh":5919,"å¥½":5920,"åĮº":5921,"/_/":5922,"ĠÐļ":5923,"åīį":5924,"ä½ł":5925,"Live":5926,"Ġ36":5927,"surance":5928,"tus":5929,"Ø¥":5930,"cgi":5931,"question":5932,"FO":5933,"visited":5934,"clus":5935,"ĠSer":5936,"Ġ35":5937,"Ġboth":5938,"alled":5939,"Ji":5940,"à¸ļ":5941,"ĠØ§ÙĨ":5942,"xY":5943,"004":5944,"áº¡":5945,"\"!==":5946,"pra":5947,"EV":5948,"tg":5949,"ĠBo":5950,"217":5951,")}.":5952,"etter":5953,"jq":5954,"Ø³ÛĮ":5955,"ating":5956,"ĠĠĠĠĠĠĠĠĠĠĠĠĠĠĠĠĠĠĠĠĠĠĠĠĠĠĠĠĠĠĠĠĠĠĠĠĠĠĠĠĠĠĠĠĠĠĠĠĠĠĠĠĠĠĠĠĠĠĠĠĠ":5957,"Ġstar":5958,"398":5959,"Ġ'<":5960,"Ø§Ø¬":5961,"å®ļ":5962,"woo":5963,"ffer":5964,"Ġ$.":5965,"Zhb":5966,"peti":5967,"wiki":5968,"Ð¾Ð¿":5969,"ÐµÐ³":5970,"ĠMovie":5971,"Ġlocation":5972,"ÎŁ":5973,"><\\/":5974,"City":5975,"ç³":5976,"finance":5977,"Tracking":5978,"ancial":5979,"éĥ¨":5980,"yy":5981,"âĢĺ":5982,"è²":5983,"278":5984,"tada":5985,"Ġenter":5986,"timi":5987,"VR":5988,"Ġbreak":5989,"results":5990,"Ġca":5991,"768":5992,"1604":5993,"=\"__":5994,"---":5995,"extra":5996,"ince":5997,"demand":5998,"Back":5999,"ĠQu":6000,"ĠĠĠĠĠĠĠĠĠĠĠĠĠĠĠĠĠĉ":6001,"cerpt":6002,"266":6003,"Component":6004,"cali":6005,"sep":6006,"329":6007,"Ġframeborder":6008,"tpl":6009,"ĠPage":6010,"ified":6011,"349":6012,"ampion":6013,"Popup":6014,"276":6015,"heart":6016,"widgets":6017,"BS":6018,"jm":6019,"Ġsi":6020,"ĠEr":6021,"KE":6022,"Ab":6023,"indu":6024,"separator":6025,"Iw":6026,"ĠØ§Ø³Øª":6027,"enabled":6028,"QW":6029,"placement":6030,")+":6031,"IV":6032,"Ent":6033,"artist":6034,":\\":6035,"USAA":6036,"èį":6037,"ä¸ĩ":6038,"/><":6039,"Ã£o":6040,"cord":6041,"prevent":6042,"ä¸ª":6043,"ĠĠĠĠĠĠĉ":6044,"Ġdis":6045,"Ð¸Ð·":6046,"dv":6047,"uth":6048,"sig":6049,"una":6050,"ALAAAAAABAAEAAA":6051,"DC":6052,"days":6053,"åĮĹ":6054,"pie":6055,"What":6056,"tire":6057,"wf":6058,"ĠĉĉĉĉĉĉĠĉĉĉĉĉĉĉ":6059,"build":6060,"adi":6061,"00000000":6062,"office":6063,"åı¯":6064,"beauty":6065,"LG":6066,"every":6067,"highlight":6068,"Ġcursor":6069,"}}@":6070,"Ïį":6071,"Ġ80":6072,"231":6073,"Ġmaxlength":6074,"WT":6075,"369":6076,"ĠTop":6077,"ĠĉĉĉĉĉĉĠĉĉĉĉĉ":6078,"band":6079,"ĠTag":6080,"vailable":6081,"Ġmedium":6082,"Ø¨Ø§Ø±":6083,"Rp":6084,"dev":6085,"hh":6086,"Â¦":6087,"171":6088,"audio":6089,"]}":6090,"Ġles":6091,"lue":6092,"tali":6093,"æ¨":6094,"ira":6095,"ĠMedi":6096,"Rk":6097,"HM":6098,"aren":6099,"mobi":6100,"bst":6101,"glo":6102,"ures":6103,"ception":6104,"Js":6105,"ä¸ŃåĽ½":6106,"]]>":6107,"controls":6108,"376":6109,"ltr":6110,"áº¿":6111,"tj":6112,"flags":6113,"=[];":6114,"274":6115,"cator":6116,"Hot":6117,"Ã¼r":6118,"BT":6119,"quee":6120,"sse":6121,"ctron":6122,"gz":6123,"ØªÙĪ":6124,"token":6125,"note":6126,"ĠĠĠĠĉĉĉ":6127,"Tri":6128,"Òµ":6129,"Ġ})(":6130,"ä¸»":6131,"980":6132,"Ul":6133,"hou":6134,"\",\"_":6135,"éļ":6136,"Ð¸ÑĤÑĮ":6137,"nis":6138,"Î£":6139,"294":6140,"Bottom":6141,"ellipsis":6142,"397":6143,"vious":6144,"spy":6145,"Ð¾Ð»ÑĮ":6146,"Vk":6147,"Ġread":6148,"Nm":6149,"How":6150,"ãĥĨ":6151,"=-":6152,"é©":6153,"){_.":6154,"193":6155,"cv":6156,"googleapis":6157,"GO":6158,"remember":6159,"keyword":6160,"Modal":6161,"lig":6162,"970":6163,"ãģł":6164,"387":6165,"ena":6166,"supports":6167,"bmJzcD":6168,"One":6169,")/":6170,"à¸«":6171,"sso":6172,"347":6173,"sil":6174,"0631":6175,"dana":6176,"cite":6177,"âĢĵ":6178,"Yy":6179,"imp":6180,"ila":6181,"éĽĨ":6182,"<=":6183,"dW":6184,"å®Ŀ":6185,"\">ãĢĲ":6186,"Ø¯Ø±":6187,"got":6188,"ards":6189,"Ø§Ø±ÛĮ":6190,"\":{},\"":6191,"ĠPo":6192,"kate":6193,"Î±Î¹":6194,"Yj":6195,"Ġplay":6196,"={};":6197,"141":6198,"league":6199,"adsby":6200,"20160":6201,"394":6202,"Ġother":6203,"Men":6204,"zb":6205,"Am":6206,"æĿ¥":6207,"Online":6208,"Å¼":6209,"BM":6210,"smbmJzcD":6211,"raph":6212,"genre":6213,"force":6214,"Target":6215,"NU":6216,"shoes":6217,"åĮĸ":6218,"captcha":6219,"IMG":6220,"ased":6221,");_.":6222,"à¸Ĺ":6223,"OPTION":6224,"Ik":6225,"delivery":6226,"ditions":6227,"ĠNow":6228,"fier":6229,"ative":6230,"Loaded":6231,"Ø§Ø¡":6232,"underline":6233,"ternational":6234,"'],":6235,"æ´»":6236,"Hy":6237,"econom":6238,"zoom":6239,"QU":6240,"adsbygoogle":6241,"ÙĦÙĬ":6242,"ĠĉĉĉĉĠĉĉĉ":6243,",,":6244,"221":6245,"half":6246,"qr":6247,"ZXJ":6248,"FD":6249,"Phone":6250,"Ġlarge":6251,"ĠĠĠĠĠĠĠĠĠĠĠĠĠĠĠĠĠĠĠĠĠĠĠĠĠĠĠĠĠĠĠĠĠĠĠĠĠĠĠĠĠĠĠĠĠĠ":6252,"Ġpa":6253,"hed":6254,"Ð¸Ñģ":6255,"SW":6256,"ãĤª":6257,"pathname":6258,"TENT":6259,"Domain":6260,"ril":6261,"ging":6262,"005":6263,"apo":6264,"Ġhelp":6265,"mount":6266,"359":6267,"mbers":6268,"Cor":6269,"acc":6270,"Ġ--><!--":6271,"throw":6272,"$('.":6273,"porno":6274,"888":6275,"faq":6276,"ington":6277,"els":6278,"Ġshape":6279,"xa":6280,"lite":6281,"Frame":6282,"iga":6283,"Ġĉĉĉĉĉĉĉĉĉĉĉĉĉĉĉĉĉĉĉĉ":6284,"579":6285,"324":6286,"address":6287,"kids":6288,"End":6289,"æ°´":6290,"alpha":6291,"akama":6292,"ÐµÐ»ÑĮ":6293,"conten":6294,"ãĥī":6295,"CON":6296,"mir":6297,"={},":6298,"396":6299,"dh":6300,"ãģ¡":6301,"just":6302,"portlet":6303,"Full":6304,"Hg":6305,"uv":6306,"advice":6307,"ingle":6308,"tial":6309,"Press":6310,"Us":6311,"chrome":6312,"ÙĪØ²":6313,"570":6314,"Change":6315,"Wrap":6316,"nounce":6317,"Ġcontainer":6318,"Ġpart":6319,"seg":6320,"utor":6321,"coming":6322,"eds":6323,"bW":6324,"kl":6325,"292":6326,"Ġopen":6327,"iso":6328,"abe":6329,"åĦ":6330,"Ġstroke":6331,"range":6332,"Æ°á»":6333,"research":6334,"ÙĦÙĪØ¯":6335,"First":6336,"--></":6337,"orange":6338,"Ð¸Ðº":6339,"è³":6340,"ÃĴ":6341,"Ġ$(\".":6342,"SH":6343,"Ġlike":6344,"seria":6345,"Min":6346,"ono":6347,"ãĥ£":6348,"ĠIt":6349,"aby":6350,"Version":6351,"Your":6352,"ates":6353,"Num":6354,"301":6355,"gia":6356,"Ġselected":6357,"è¢":6358,"232":6359,">=":6360,"GQ":6361,"Handler":6362,"çľĭ":6363,"è¦ģ":6364,"Ġ\"+":6365,"FT":6366,"uten":6367,"8211":6368,"ICA":6369,"solu":6370,"ĠÛ":6371,"ãĥĥãĤ¯":6372,"ctrl":6373,"367":6374,"qus":6375,"èĢħ":6376,"poly":6377,"Business":6378,"389":6379,"åĪ©":6380,"Ġà¤ķ":6381,"Ġ'//":6382,"hj":6383,"chant":6384,"wall":6385,"geo":6386,"ipt":6387,"]><":6388,"Ã¨":6389,"390":6390,"Ġinter":6391,"Ð¾Ð¶":6392,"Ġupdate":6393,"bes":6394,"episode":6395,"ĠID":6396,"Ġcached":6397,"ebay":6398,"æ³ķ":6399,"ÙĪÛĮ":6400,"Ã¥":6401,";:{&":6402,"Targeting":6403,"irt":6404,"referrer":6405,"preventDefault":6406,"Su":6407,"Fy":6408,"ĠÐ¿Ð¾":6409,"pZ":6410,"=\"\"/>":6411,"nap":6412,"ãĤģ":6413,"ÐµÑĢÐ¸Ð°Ð»":6414,"DTD":6415,"373":6416,"cie":6417,"ample":6418,"Ġtheir":6419,"à¸ķ":6420,"anchor":6421,"997":6422,"uYn":6423,"UV":6424,"ĠArial":6425,"liste":6426,"glyphicon":6427,"guid":6428,"æĪ¿":6429,"alla":6430,"çīĩ":6431,"colo":6432,"strip":6433,"334":6434,"utes":6435,"Ø±Ùħ":6436,"esome":6437,"percase":6438,".Ā":6439,"reat":6440,"RC":6441,"olf":6442,"696":6443,"irl":6444,"à¤ķ":6445,"å¼ı":6446,"Social":6447,"Ak":6448,"ranking":6449,"sitemap":6450,"iv":6451,"exec":6452,"wen":6453,"ĠĠĠĉĉĉ":6454,"imagen":6455,"ãĥķãĤ":6456,"lvbj":6457,"dion":6458,"bject":6459,"Ø§ÙĬ":6460,"trackPage":6461,"discount":6462,"opyright":6463,"fli":6464,"Ā.Ā":6465,"Templa":6466,"qb":6467,"ĠÐ¾Ð±":6468,"Vali":6469,"äº¬":6470,"insurance":6471,"è¥":6472,"Scroll":6473,"yl":6474,"pires":6475,"DO":6476,"388":6477,"Gl":6478,"Qz":6479,"368":6480,"ĠØµ":6481,"sdWU":6482,"ert":6483,"Ð¾Ð³Ð¾":6484,"Ġprice":6485,"ctions":6486,"ÙĦÙī":6487,"cula":6488,"mix":6489,"zar":6490,"Î¸":6491,"ident":6492,"ãĥĲ":6493,"Ax":6494,"242":6495,"Privacy":6496,"ska":6497,"Ġaccess":6498,"Pjx":6499,"');\"><":6500,"bundle":6501,"Ø¯Ø§ÙĨ":6502,"ç¶":6503,"station":6504,"Bro":6505,"contentbox":6506,"swi":6507,"æĲ":6508,"firm":6509,"Ġph":6510,"ĠÐľ":6511,"security":6512,"jus":6513,"Je":6514,"Kw":6515,"nik":6516,"áº£":6517,"validate":6518,"tika":6519,"cycle":6520,"Cri":6521,"008":6522,"mens":6523,"Ð£":6524,"metri":6525,"nov":6526,"torrent":6527,"sos":6528,"344":6529,"BI":6530,"314":6531,"ski":6532,"åĬĽ":6533,"();\"":6534,"ÎµÎ¹":6535,"ratings":6536,"=='":6537,"WD":6538,"mU":6539,"576":6540,"348":6541,"toolbar":6542,"uter":6543,"Country":6544,"nels":6545,"limit":6546,"328":6547,"furniture":6548,"clock":6549,"osh":6550,"YT":6551,"Ġload":6552,"']);\">":6553,"ÙħÙĨ":6554,"Zg":6555,"jar":6556,"è§Ĩ":6557,"vk":6558,"PD":6559,"ĠDes":6560,"aler":6561,"ZuYn":6562,"ZuYnNw":6563,"ĠÑģÑĤ":6564,"Qb":6565,"rit":6566,"wr":6567,"ãĥģ":6568,"377":6569,"xia":6570,"éĵ":6571,"ookies":6572,"prise":6573,"documentElement":6574,"allen":6575,"Ġphoto":6576,"oni":6577,"CS":6578,"182":6579,"iter":6580,"render":6581,"Ġpos":6582,"vt":6583,"ä¿Ŀ":6584,"MI":6585,"third":6586,"Â¤":6587,"1080":6588,"trade":6589,"ttpRequest":6590,"slice":6591,"thumbnails":6592,"ditor":6593,"bound":6594,"sYX":6595,"software":6596,"Global":6597,"Ġsocial":6598,"nV":6599,"Ġcolumn":6600,"\":[],\"":6601,"Ġpanel":6602,"paper":6603,"univers":6604,"pod":6605,"Ġslide":6606,"Person":6607,"ĠNav":6608,"toString":6609,"friend":6610,"Own":6611,"çĶ·":6612,"loud":6613,"edin":6614,"eg":6615,"mad":6616,"Manager":6617,"LHttpRequest":6618,"oa":6619,"See":6620,"Enable":6621,"Ø¨Ùĩ":6622,"ĠÙĩØ§ÛĮ":6623,"Ew":6624,"mera":6625,"à¤²":6626,"Ġrequired":6627,"Anim":6628,"noticia":6629,"Row":6630,"statusicon":6631,"fz":6632,"expanded":6633,"shy":6634,"384":6635,"Control":6636,"ÑĤÐ¾":6637,"Ġgi":6638,"Poli":6639,"gation":6640,"à¸ª":6641,"depor":6642,"frontend":6643,"Ġerror":6644,"uj":6645,"åįĹ":6646,"kx":6647,"ĠÃł":6648,"journal":6649,"udent":6650,"subcategory":6651,"lifestyle":6652,"agent":6653,"favorite":6654,"magazine":6655,"rich":6656,"SK":6657,"\\.":6658,"yui":6659,"ĠĠĠĠĠĠĠĠĠĠĠĠĠĠĠĠĠĠĠĠĠĠĠĠĠĠĠĠĠĠĠĠĠĠĠĠĠĠĠĠĠĠĠĠĠĠĠĠĠĠĠĠĠĠĠĠĠĠĠĠĠĠĠĠĠ":6660,"Ġaddress":6661,"clusive":6662,"bio":6663,"318":6664,"Nv":6665,"porate":6666,"divider":6667,"697":6668,"ision":6669,"){}":6670,"compo":6671,"UG":6672,"plies":6673,"bli":6674,"ĠSpe":6675,"Ys":6676,"lean":6677,"Ġinternal":6678,"rpt":6679,"Ri":6680,"ĠTube":6681,"Ġê":6682,"xin":6683,"Game":6684,"Callback":6685,"TT":6686,"jun":6687,"excerpt":6688,"adobe":6689,"ZA":6690,"cin":6691,"Ġface":6692,">|":6693,"pagead":6694,"éĻĲ":6695,"Android":6696,"Ġafter":6697,"ãģĳ":6698,"RS":6699,"ãģķãĤ":6700,"uer":6701,"Ġonload":6702,"aries":6703,"ĠEng":6704,"ÎĻ":6705,"school":6706,"anks":6707,"inside":6708,"tinue":6709,"alo":6710,"wei":6711,"OST":6712,"session":6713,"uccess":6714,"ĠFin":6715,"007":6716,"æĬĢ":6717,"å±±":6718,"uma":6719,"Ġonmousedown":6720,"Ix":6721,"lari":6722,"è¶ħ":6723,"cw":6724,"RO":6725,"Arial":6726,"042":6727,"Location":6728,"Column":6729,"0026":6730,"legal":6731,"windows":6732,"dmFsdWU":6733,"BN":6734,"hard":6735,"Ġmt":6736,"ktop":6737,"é¡µ":6738,"293":6739,"cx":6740,");-":6741,"0648":6742,"Ð¸ÑĢ":6743,"ĠWith":6744,"379":6745,"accor":6746,"ĠÎµ":6747,"Ġlogin":6748,"éľ":6749,"gain":6750,"]]":6751,"herit":6752,"å»":6753,"wl":6754,"beacon":6755,"textarea":6756,"}@":6757,"Ġ'.":6758,"mier":6759,"åĳĬ":6760,"åºĹ":6761,"Interval":6762,"zcz":6763,"exper":6764,"Eg":6765,"cj":6766,"develo":6767,"Ġbest":6768,"åº¦":6769,"Ġil":6770,"ĠĠĠĠĠĠĠĠĠĠĠĠĠĠĠĠĠĠĠĠĠĠĠĠĠĠĠĠĠĠĠĠĠĠĠĠĠĠĠĠĠĠĠĠĠĠĠĠĠĠĠĠĠĠĠĠĠĠĠĠĠĠĠĠĠĠĠĠĠĠĠĠĠĠĠĠĠĠĠĠĠĠĠĠ":6771,"ëĭ":6772,"lvbiB":6773,"trb":6774,"readyState":6775,"smbmJzcDsmbmJzcD":6776,"international":6777,"IJ":6778,"ä¸ĸ":6779,"Äį":6780,"Ġpi":6781,"ftware":6782,"fresh":6783,"Iz":6784,"475":6785,"ĠPer":6786,"Msg":6787,"=#":6788,"yx":6789,"tweet":6790,">';":6791,"RF":6792,"mov":6793,"(.":6794,"à¹Į":6795,"è¥¿":6796,"ICAgICAgICAgICAgICAgICAgICAgICAg":6797,"fid":6798,"dw":6799,"Ïİ":6800,"martp":6801,"chart":6802,"646":6803,"recipes":6804,"Ph":6805,"346":6806,"ĠInter":6807,"\\&":6808,"CK":6809,"Ð¸Ð´":6810,"interi":6811,"lim":6812,"505":6813,"'));":6814,"Ġgame":6815,"smo":6816,"Ā>Ā":6817,"refresh":6818,"/+":6819,"lightbox":6820,"hit":6821,"Storage":6822,"Microsoft":6823,"378":6824,"äºĮ":6825,"boy":6826,"ĠSex":6827,"859":6828,"role":6829,"zn":6830,"RD":6831,"frames":6832,"tat":6833,"aea":6834,"Jn":6835,"Net":6836,"512":6837,"JP":6838,"xlink":6839,"Ġinformation":6840,"Ø®Ø¯":6841,"ACH":6842,"UP":6843,"ison":6844,"akamai":6845,"Ya":6846,"express":6847,";,&#":6848,"Cw":6849,"ccer":6850,"DOM":6851,"Por":6852,"ultip":6853,"clr":6854,"Ym":6855,"Cli":6856,"161":6857,"ä¸ĵ":6858,"BG":6859,"OwnProperty":6860,"313":6861,"ãĥĩ":6862,"386":6863,"yd":6864,"eye":6865,"motor":6866,"Ġcatch":6867,"ei":6868,":(":6869,"åŁİ":6870,"pv":6871,"pick":6872,"çĽ®":6873,"ä¹Ĳ":6874,"cq":6875,"tracker":6876,"disqus":6877,"Ġmen":6878,"Ru":6879,"Ø¦":6880,"UD":6881,"Pic":6882,"Nh":6883,"=\"{&":6884,"325":6885,"æĹ¥æľ¬":6886,"420":6887,"urch":6888,"Ø§ÙĨÛĮ":6889,"æĺŁ":6890,"æ¬¾":6891,"girls":6892,"Ġbut":6893,"english":6894,"Ðĵ":6895,"960":6896,"uly":6897,"OV":6898,"uM":6899,"oice":6900,"lastpost":6901,"éĿ¢":6902,"trackPageview":6903,"flat":6904,"nn":6905,"zx":6906,"abi":6907,"ĠÎ¼":6908,"=\"/?":6909,"Ġindex":6910,"extend":6911,"AG":6912,"343":6913,"omniture":6914,"ØªÛĮ":6915,"å¹¿":6916,"bug":6917,"________":6918,"Best":6919,"ĠStart":6920,"550":6921,"Ġarial":6922,"bang":6923,"ZE":6924,"æĢ§":6925,"organ":6926,"HVl":6927,"Pages":6928,"è´Ń":6929,"Black":6930,"atest":6931,"ç§ĳ":6932,"Î¤":6933,"ĠCode":6934,"engine":6935,"ĠSho":6936,"prefetch":6937,"sharer":6938,"468":6939,"1200":6940,"=\"&#":6941,"1600":6942,"Ġscrolling":6943,"å½±":6944,"ffic":6945,"unes":6946,"RM":6947,"´ì":6948,"Ġwho":6949,"âĢ¢":6950,"æ¶":6951,"dns":6952,"ĠMon":6953,"ä»·":6954,"è¡¨":6955,"åĴĮ":6956,"$.":6957,"rey":6958,"callback":6959,"èı":6960,"Kf":6961,"Ð¸ÑģÑĤ":6962,"shows":6963,"Exp":6964,"ĠAndroid":6965,"ween":6966,"wdGlvbj":6967,"0646":6968,"Ġje":6969,"åĪ°":6970,"jor":6971,"information":6972,"patible":6973,"Ð°Ñģ":6974,"ĠĉĠĠĠĠĠĠĠĠ":6975,"adget":6976,"(_":6977,"ccc":6978,"ĠÐ½Ðµ":6979,"ä¸º":6980,"linkedin":6981,"scrol":6982,"Ġsome":6983,"malink":6984,"Ð¾Ð·":6985,"440":6986,"Products":6987,"319":6988,"charset":6989,"ZC":6990,"ride":6991,"eq":6992,"production":6993,"åĥı":6994,"rive":6995,"Ø¯ÛĮ":6996,"hasOwnProperty":6997,"ĠOr":6998,"mob":6999,"æĪı":7000,"Level":7001,"ZV":7002,"à¹ģ":7003,"ming":7004,"=\"\";":7005,"ç¥ŀ":7006,"ç¦":7007,"sales":7008,"æĺİ":7009,"/-/":7010,"DX":7011,"tpage":7012,"lywood":7013,"orth":7014,"ĠĠĠĠĠĠĠĠĠĠĠĠĠĠĠĠĠĠĠĠĠĠĠĠĠĠĠĠĠĠĠĠĠĠĠĠĠĠĠĠĠĠĠĠĠĠĠĠĠĠĠĠĠĠĠĠĠĠĠĠĠĠĠĠĠĠĠĠĠĠĠĠĠĠĠĠĠĠĠĠĠĠĠĠĠĠĠĠĠĠĠĠĠĠĠĠĠĠĠĠĠĠĠĠĠĠĠĠĠĠĠĠĠĠĠĠĠĠĠĠĠĠĠĠĠĠĠĠĠĠĠĠĠĠĠĠĠĠĠĠĠĠĠĠĠĠĠĠĠĠĠĠĠĠĠĠĠĠĠĠĠĠĠĠĠĠĠĠĠĠĠĠĠĠĠĠĠĠĠĠĠĠĠĠĠĠĠĠĠĠĠĠĠĠĠĠĠĠĠĠĠĠĠĠĠĠĠĠĠĠĠĠĠĠĠĠĠĠĠĠĠĠĠĠĠĠĠĠĠĠĠĠĠĠĠĠĠĠĠĠĠĠĠĠĠĠĠĠĠĠĠĠĠĠĠĠĠĠĠĠĠĠĠĠĠĠĠĠĠĠĠĠĠĠĠĠĠĠĠĠĠĠĠĠĠĠĠĠĠĠĠĠĠĠĠĠĠĠĠĠĠĠĠĠĠĠĠĠĠĠĠĠĠĠĠĠĠĠĠĠĠĠĠĠĠĠĠĠĠĠĠĠĠĠĠĠĠĠĠĠĠĠĠĠĠĠĠĠĠĠĠĠĠĠĠĠĠĠĠĠĠĠĠĠĠĠĠĠĠĠĠĠĠĠĠĠĠĠĠĠĠĠĠĠĠĠĠĠĠĠĠĠĠĠĠĠĠĠĠĠĠĠĠĠĠĠĠĠĠĠĠĠĠĠĠĠĠĠĠĠĠĠĠĠĠĠĠĠĠĠĠĠĠĠĠĠĠĠĠĠĠĠĠĠĠĠĠĠĠĠĠĠĠĠĠĠĠĠĠĠĠĠĠĠĠĠĠĠĠĠĠĠĠĠĠĠĠĠĠĠĠĠĠĠĠĠĠĠĠĠĠĠĠĠĠĠĠĠĠĠĠĠĠĠĠĠĠĠĠĠĠĠĠĠĠĠĠĠĠĠĠĠĠĠĠĠĠĠĠĠĠĠĠĠĠĠĠĠĠĠĠĠĠĠĠĠĠĠĠĠĠĠĠĠĠĠĠĠĠĠĠĠĠĠĠĠĠĠĠĠĠĠĠĠĠĠĠĠĠĠĠĠĠĠĠĠĠĠĠĠĠĠĠĠĠĠĠĠĠĠĠĠĠĠĠĠĠĠĠĠĠĠĠĠĠĠĠĠĠĠĠĠĠĠĠĠĠĠĠĠĠĠĠĠĠĠĠĠĠĠĠĠĠĠĠĠĠĠĠĠĠĠĠĠĠĠĠĠĠĠĠĠĠĠĠĠĠĠĠĠĠĠĠĠĠĠĠĠĠĠĠĠĠĠĠĠĠĠĠĠĠĠĠĠĠĠĠĠĠĠĠĠĠĠĠĠĠĠĠĠĠĠĠĠĠĠĠĠĠĠĠĠĠĠĠĠĠĠĠĠĠĠĠĠĠĠĠĠĠĠĠĠĠĠĠĠĠĠĠĠĠĠĠĠĠĠĠĠĠĠĠĠĠĠĠĠĠĠĠĠĠĠĠĠĠĠĠĠĠĠĠĠĠĠĠĠĠĠĠĠĠĠĠĠĠĠĠĠĠĠĠĠĠĠĠĠĠĠĠĠĠĠĠĠĠĠĠĠĠĠĠĠĠĠĠĠĠĠĠĠĠĠĠĠĠĠĠĠĠĠĠĠĠĠĠĠĠĠĠĠĠĠĠĠĠĠĠĠĠĠĠĠĠĠĠĠĠĠĠĠĠĠĠĠĠĠĠĠĠĠĠĠĠĠĠĠĠĠĠĠĠĠĠĠĠĠĠĠĠĠĠĠĠĠĠĠĠĠĠĠĠĠĠĠĠĠĠĠĠĠĠĠĠĠĠĠĠĠĠĠĠĠĠĠĠĠĠĠĠĠĠĠĠĠĠĠĠĠĠĠĠĠĠĠĠĠĠĠĠĠĠĠĠĠĠĠĠĠĠĠĠĠĠĠĠĠĠĠĠĠĠĠĠĠĠĠĠĠĠĠĠĠĠĠĠĠĠĠĠĠĠĠĠĠĠĠĠĠĠĠĠĠĠĠĠĠĠĠĠĠĠĠĠĠ":7015,"å·ŀ":7016,"nw":7017,"det":7018,"à¥ĭ":7019,"yre":7020,"tice":7021,"hai":7022,"Ġ\"\"":7023,"Ã©s":7024,"prefix":7025,"zhi":7026,".\">":7027,"scar":7028,"vari":7029,"ĠĉĠĉĠĉ":7030,"ĠØ±ÙĪ":7031,"181":7032,"ruit":7033,"dies":7034,"works":7035,"ĠOf":7036,"åĽŀ":7037,"998":7038,"Ġ150":7039,">:":7040,"åĬ¡":7041,"$(\".":7042,"312":7043,"ABA":7044,"302":7045,"040":7046,")\"><":7047,"bun":7048,"landscape":7049,"SC":7050,"hq":7051,"NCg":7052,"å¹³":7053,"ĠÐł":7054,"éģĵ":7055,"Ġtri":7056,"Rating":7057,"zr":7058,"staur":7059,"Ġhead":7060,"'/>":7061,"publi":7062,"å¨":7063,"ĠPa":7064,"iro":7065,"tual":7066,"Ġ}}":7067,"575":7068,"linfo":7069,"Sho":7070,"request":7071,"fg":7072,"gaze":7073,"teri":7074,"gou":7075,"273":7076,"Char":7077,"tery":7078,"Ð½Ð°":7079,"Ġ800":7080,"Ka":7081,"wm":7082,"Ġden":7083,"fession":7084,"sticky":7085,"åĸ":7086,"NL":7087,"imum":7088,"è±":7089,"Ġ(\"":7090,"366":7091,"191":7092,"1111":7093,"SG":7094,"Ġhover":7095,"=[],":7096,"Ke":7097,"Ġvideos":7098,"pdf":7099,"Ġ29":7100,"-[":7101,"ĠĉĉĉĠĠĠ":7102,"Context":7103,"Uy":7104,"844":7105,"ĠĉĉĉĉĉĉĉĉĉĠĉĉĉĉĉĉĉĉĉ":7106,"Ġglyphicon":7107,"Ã¡s":7108,"272":7109,">[":7110,"vZ":7111,"Ġhis":7112,"317":7113,"route":7114,"animate":7115,"ç³»":7116,"mask":7117,"liance":7118,"âĢĶ":7119,"ä»£":7120,"Window":7121,"ĠÐ´Ð»Ñı":7122,"Headline":7123,"}};":7124,"same":7125,"éĹ¨":7126,"pn":7127,"ĠSa":7128,"Movie":7129,"ĠÑĦ":7130,"From":7131,"zj":7132,"Ġ__":7133,"SM":7134,"ĠĠĠĠĠĠĠĠĠĠĠĠĠĠĠĠĠĠĠĠĠĠĠĠĠĠĠĠĠĠĠĠĠĠĠĠĠĠĠĠĠĠĠĠĠĠĠĠĠĠĠĠĠĠĠĠĠĠĠĠĠĠĠĠĠĠĠĠĠĠĠĠĠĠĠĠĠĠĠĠĠĠĠĠĠĠĠĠĠĠĠĠ":7135,"IX":7136,"656":7137,"DIV":7138,"ÐµÐ·":7139,"sell":7140,"à¸Ħ":7141,"reset":7142,"%);":7143,"ĠServices":7144,"vertise":7145,"Ġpassword":7146,"bran":7147,"bian":7148,"DM":7149,"éĴ":7150,"digitalspy":7151,"zhu":7152,"))}":7153,"RL":7154,"gbar":7155,"caret":7156,"Â«":7157,"Ġworld":7158,"æľŁ":7159,"750":7160,"direction":7161,"whats":7162,"645":7163,"Find":7164,"\\/\",\"":7165,"arr":7166,"åı¸":7167,"\"}.":7168,"river":7169,"648":7170,"Table":7171,"605":7172,"nodeType":7173,"ĠĉĉĉĉĉĠĉĉĉĉ":7174,"misc":7175,"ĠĠĠĠĠĠĠĠĠĠĠĠĠĠĠĠĠĠĠĠĠĠĠĠĠĠĠĠĠĠĠĠĠĠĠĠĠĠĠĠĠĠĠĠĠĠĠĠĠĠĠĠĠĠ":7176,"Ġparent":7177,"Description":7178,"zw":7179,"ĠPe":7180,"Ġfav":7181,"dered":7182,"990":7183,"ÐµÐ½Ð¸Ñı":7184,"ZhbHVl":7185,"Sk":7186,"EX":7187,"358":7188,"timing":7189,"qw":7190,"rdf":7191,"}),":7192,"ÅĽ":7193,"ĠJo":7194,"ĠĠĠĠĠĠĠĠĠĠĠĠĠĠĠĠĠĠĠĠĠĠĠĠĠĠĠĠĠĠĠĠĠĠĠĠĠĠĠĠĠĠĠĠĠĠĠĠĠĠĠĠĠĠĠĠĠĠĠĠĠĠĠĠĠĠĠĠĠ":7195,"ÏģÎ¿":7196,"Î·ÏĤ":7197,"UF":7198,"audi":7199,"ÑĩÐµ":7200,"ET":7201,"Ġ\"></":7202,"Yp":7203,"song":7204,"any":7205,"tains":7206,"VV":7207,"Ġgroup":7208,"Pay":7209,"Ġback":7210,"2011":7211,"\">Ö":7212,",{":7213,"ums":7214,"mento":7215,"XQ":7216,"ãĤ¦":7217,"mvpd":7218,"Ġcoords":7219,"ĠSite":7220,"nQ":7221,"depart":7222,"ĠØ§ÙĦØ¹":7223,"feedback":7224,"vac":7225,"four":7226,"hub":7227,"dfp":7228,"sj":7229,"ĠProduct":7230,"fili":7231,"ĠBEG":7232,"iger":7233,"652":7234,"offers":7235,"JJ":7236,"ãģĹãģ¦":7237,"ento":7238,"èµ·":7239,"Ġhentry":7240,"sts":7241,"lum":7242,"Ġcookie":7243,"AY":7244,"æĪĺ":7245,"ãģ£ãģ¦":7246,"take":7247,"ÑĥÑĤ":7248,"Ġuna":7249,"Ġwhat":7250,"nbc":7251,"ĠBEGIN":7252,"cope":7253,"651":7254,"à¤¸":7255,"tree":7256,"ĠVideos":7257,"disp":7258,"||!":7259,"à¤¤":7260,"Ġ400":7261,"VB":7262,"bie":7263,"ÙĨÚ¯":7264,"arios":7265,"ĠTwitter":7266,"XMLHttpRequest":7267,"'}":7268,"irts":7269,"addthis":7270,"ann":7271,"326":7272,"Ko":7273,"ĠAir":7274,"ĠMi":7275,"PP":7276,"ugu":7277,"broadcast":7278,"èµĦ":7279,"ØªÙĩ":7280,"endor":7281,"canon":7282,"ury":7283,"Ġperson":7284,"Ġmake":7285,"invest":7286,"STA":7287,"encodeURIComponent":7288,"kla":7289,"ĠĉĉĠĠĠĠĠĠĠ":7290,"relic":7291,"dator":7292,"Ur":7293,"Vud":7294,"ãĥĬ":7295,"Ġwhen":7296,"Dom":7297,"éĢŁ":7298,"mel":7299,"activity":7300,"///":7301,"beta":7302,"ÑĥÑĢ":7303,"ĠPhoto":7304,"GFu":7305,"Ga":7306,"Ġsprite":7307,"Fk":7308,"Ġselect":7309,"006":7310,"339":7311,"banners":7312,";)":7313,"èĭ±":7314,"ĠPolicy":7315,"ĠĠĠĠĠĠĠĠĠĠĠĠĉ":7316,"respond":7317,"asa":7318,"HL":7319,"statechange":7320,"Card":7321,"074":7322,"ï¼ģ</":7323,"spect":7324,"=&#":7325,"kat":7326,"=\"/\"":7327,"zione":7328,"tection":7329,"ille":7330,"Ġke":7331,"ãĥ³ãĥĪ":7332,"Ġpoli":7333,"çķĮ":7334,"Ġie":7335,"pare":7336,"isi":7337,"Fs":7338,"ret":7339,"àª¾":7340,"readystatechange":7341,"rack":7342,"åĶ":7343,"LP":7344,"||[":7345,"canvas":7346,"ãĥĥãĥĪ":7347,"aid":7348,"vesti":7349,"ĠĉĉĉĉĉĠĉĉĉĉĉĉ":7350,"inh":7351,"çº¿":7352,"comic":7353,"pps":7354,"notification":7355,"åħ³":7356,"Ġlas":7357,"creen":7358,"]],":7359,"ĠPr":7360,"ĠBar":7361,"Ġnumber":7362,"Ln":7363,"bay":7364,"vv":7365,"0628":7366,"collections":7367,"VG":7368,"ducation":7369,"Ġmay":7370,"ĠØ§ÙĦØ£":7371,"espn":7372,"Ġsign":7373,"Last":7374,"that":7375,"wdGlvbiB":7376,"iran":7377,"ĠGA":7378,"æ¸¸æĪı":7379,"Ú©Ø³":7380,"ZuYnNwOy":7381,"%{":7382,"Services":7383,"ĠonMouse":7384,"æķĻ":7385,"utsch":7386,"æ©":7387,"010":7388,"à¦¬":7389,"ãģĹãģŁ":7390,"æĸĻ":7391,"Ġ'&":7392,"bus":7393,"uli":7394,"jan":7395,"tickets":7396,"jk":7397,"leader":7398,"Ð½Ð°Ñı":7399,"ization":7400,"wal":7401,"gdmFsdWU":7402,"homa":7403,"nation":7404,"Company":7405,"Mg":7406,"ĠSTA":7407,"649":7408,"newrelic":7409,"rain":7410,"tho":7411,"ĠMath":7412,"ĠGe":7413,"hipping":7414,"Ġass":7415,"Flag":7416,"ĠAmer":7417,"Terms":7418,"fancy":7419,"tml":7420,"ĠEuro":7421,"dest":7422,"centered":7423,"ĠĠĠĠĠĠĠĠĠĠĠĠĠĠĠĠĠĠĠĠĠĠĠĠĠĠĠĠĠĠĠĠĠĠĠĠĠĠĠĠĠĠĠĠĠĠĠĠĠĠ":7424,"ÏģÎ±":7425,"Vz":7426,"inPlace":7427,"shift":7428,"Ġalf":7429,"created":7430,"questions":7431,"Settings":7432,"ember":7433,"à¦ķ":7434,"jane":7435,"ĠYAHOO":7436,"Sto":7437,"zie":7438,"wk":7439,"å¢":7440,"uring":7441,"technology":7442,"ĠContent":7443,"mai":7444,"ĠSans":7445,"å²":7446,"çĭ":7447,"oung":7448,"çŁ¥":7449,"slides":7450,"ĠCONTENT":7451,"262":7452,"lida":7453,"three":7454,"Ġbeen":7455,"Enabled":7456,"Txt":7457,"Fl":7458,"Tool":7459,"yk":7460,"479":7461,"eek":7462,"EW":7463,"mbr":7464,"Fd":7465,"Obj":7466,"Ġcase":7467,"Ġchange":7468,"Tech":7469,"ÙħÛĮ":7470,"Line":7471,"æ»":7472,"timer":7473,"794":7474,"Ġposts":7475,"banking":7476,"SO":7477,"yal":7478,"è®¡":7479,"step":7480,"setTargeting":7481,"YP":7482,"verification":7483,"åı£":7484,"Av":7485,"pisode":7486,")\"></":7487,"]},{\"":7488,"ç»ı":7489,"ĠĊ":7490,"rap":7491,"ĠĉĠĠĠĠĠĠĠĠĠĠĠ":7492,"obao":7493,"ĠBy":7494,"accordion":7495,"serialinfo":7496,"xc":7497,"outh":7498,"Ġstr":7499,"%;\"></":7500,"ority":7501,"TOP":7502,"æĤ":7503,"0430":7504,"entity":7505,"Ġ45":7506,"ç«Ļ":7507,"plbefore":7508,"arrowimplbefore":7509,"uted":7510,"Ready":7511,"Ġfix":7512,"fbq":7513,"IHZhbHVl":7514,"È«":7515,"Ġthan":7516,"Order":7517,"845":7518,"EP":7519,"jg":7520,"jr":7521,"æº":7522,">-":7523,"è¨ĺ":7524,"LDA":7525,"574":7526,"æŀľ":7527,"Ø¯Ùĩ":7528,"thers":7529,"Ġ500":7530,"fen":7531,"855":7532,"Qs":7533,"ciones":7534,"çľŁ":7535,"coupon":7536,"918":7537,"éł":7538,"hellip":7539,"Ġinclu":7540,"Tou":7541,"hos":7542,"hao":7543,"650":7544,"çĥŃ":7545,"Uh":7546,"ZGF":7547,"SL":7548,"goog":7549,"çĲĥ":7550,"ern":7551,"inf":7552,"Ġcard":7553,"tistics":7554,"ZGl":7555,"aliz":7556,"ãģ¿":7557,"mous":7558,"Active":7559,"jh":7560,"Air":7561,"Â®":7562,"647":7563,"idad":7564,"Ġblog":7565,"Buy":7566,"655":7567,"Ġ38":7568,"limg":7569,"Ġmost":7570,"tination":7571,"(?":7572,"Options":7573,"vm":7574,"Ġhttps":7575,"Ġ70":7576,"Ø¯Ø§ÙĨÙĦÙĪØ¯":7577,"Ġhow":7578,"Ġrespon":7579,"hair":7580,"Module":7581,"cDo":7582,"modern":7583,"TER":7584,"Ġnavbar":7585,"power":7586,"477":7587,"rows":7588,"buil":7589,"oro":7590,"marquee":7591,"ĠPlay":7592,"promotion":7593,"ÐµÐ½Ð¸Ðµ":7594,"laz":7595,"onerror":7596,"è»":7597,"gon":7598,"illion":7599,"Val":7600,"wish":7601,"Ø·ÙĤ":7602,"ĠOne":7603,"ligh":7604,"ä»¥":7605,"Euro":7606,"oku":7607,"displayName":7608,"aya":7609,"Ā\"Ā":7610,"Plus":7611,"ĠName":7612,"211":7613,"fol":7614,"appy":7615,"Che":7616,"ÙĢ":7617,"Ġbig":7618,"Ġglobal":7619,"çı":7620,"Update":7621,"Ġ1000":7622,"ÃĲÅ":7623,"ĴÃĲ":7624,"KX":7625,"Ġteaser":7626,"\\\"\\":7627,"ampa":7628,"kn":7629,"yen":7630,"251":7631,"Ed":7632,"kur":7633,"fire":7634,"pool":7635,"ãģĻãĤĭ":7636,"Template":7637,"\"){":7638,"644":7639,"á»ĳ":7640,"ãĥł":7641,"TX":7642,"uman":7643,"pet":7644,"ĠWorld":7645,"robot":7646,"PlaceHolder":7647,"ãģķ":7648,"amazonaws":7649,"iw":7650,"Ġstory":7651,"ä¼ł":7652,"tique":7653,"Gx":7654,"onclick":7655,"need":7656,"DQoJ":7657,"culture":7658,"ely":7659,"èī²":7660,"ĠĠĠĠĠĉĉĉ":7661,"Ġpath":7662,"WM":7663,"road":7664,"PM":7665,"\">$":7666,"ific":7667,"Ġexper":7668,"plore":7669,"è®¾":7670,"Ġ95":7671,"660":7672,"yt":7673,"à¦¤":7674,"cDovL":7675,"ÑģÐµÑĢÐ¸Ð°Ð»":7676,"æİ¨":7677,"ĠÙħÙĪ":7678,"ï¿":7679,"isa":7680,"ĠPlease":7681,"ãĤ£":7682,"conversion":7683,"avings":7684,"Respon":7685,"shots":7686,"-\\":7687,"ĠĉĉĠĠĠĠĠĠĠĠĠĠĠĠĠĠĠĠ":7688,"445":7689,"YY":7690,"ellow":7691,"Uz":7692,"ĠĉĉĉĉĉĉĉĉĠĉĉĉĉĉĉĉĉĉĠĉĉĉĉĉĉĉĉĠĉĉĉĉĉĉĉĉĉĠĉĉĉĉĉĉĉĉĠĉĉĉĉĉĉĉĉĉĠĉĉĉĉĉĉĉĉĠĉĉĉĉĉĉĉĉĉ":7693,"%{-":7694,"ubermenu":7695,"omi":7696,"appe":7697,"BAQE":7698,"HomePage":7699,"Status":7700,"multimedia":7701,"ÂłÃĳ":7702,"\"));":7703,"conds":7704,"ĠReg":7705,"009":7706,"Ġanim":7707,"dress":7708,"igital":7709,"contrib":7710,"categor":7711,"ĠĠĠĠĉĉĉĉ":7712,"effect":7713,"liber":7714,"ê¸":7715,"Sale":7716,"sharing":7717,"GET":7718,"politics":7719,"Ġentry":7720,"tract":7721,"ĠLi":7722,"ĠRa":7723,"members":7724,"ticker":7725,"Ġ\"-":7726,"æĦı":7727,"creative":7728,"æŃ£":7729,"hf":7730,"ĠĠĠĠĠĠĠĠĠĠĠĠĠĠĠĠĠĠĠĠĠĉ":7731,"Br":7732,"Ġalert":7733,"676":7734,"éŃ":7735,"à¹Ħ":7736,"Ġlocal":7737,"testi":7738,"Ġ600":7739,"aving":7740,"Ð°Ð·":7741,"anced":7742,"','','":7743,"ÃŃa":7744,"teo":7745,"weet":7746,"332":7747,"ungen":7748,"Ġevery":7749,"Ø¯ÛĮØ¯":7750,"ãĥĳ":7751,"america":7752,"tails":7753,"chin":7754,"Ġtransition":7755,"ç²¾":7756,"disney":7757,"EQ":7758,"ãĤº":7759,"854":7760,"Published":7761,"xhc":7762,"Ġâ":7763,"Organ":7764,"ĠShop":7765,"454":7766,"241":7767,"Comments":7768,"2010":7769,"Report":7770,"lux":7771,"miss":7772,"inci":7773,"ĠĠĠĠĠĠĠĠĠĠĠĠĠĠĠĠĠĠĠĠĠĠĠĠĠĠĠĠĠĠĠĠĠĠĠĠĠĠĠĠĠĠĠĠĠĠĠĠĠĠĠ":7774,"875":7775,"Ġfile":7776,"gx":7777,"aro":7778,"ç¨ĭ":7779,"HK":7780,"tad":7781,"ĠSearch":7782,"what":7783,"jbGF":7784,"ĠØ±Ø§":7785,"Sports":7786,"à¦²":7787,"éĥ½":7788,"Ø®Ø¯Ø§Ùħ":7789,"mR":7790,"'+'":7791,"Ġcf":7792,"æł¼":7793,"Day":7794,"icn":7795,"Ġwebsite":7796,"ĠPost":7797,"995":7798,"keyframes":7799,">&#":7800,"ĠBu":7801,"forms":7802,"ZR":7803,"Ġ...</":7804,"jn":7805,"´ë":7806,"notice":7807,"Sport":7808,"buzz":7809,"èģĶ":7810,"Í¼":7811,"Ġodd":7812,"0281":7813,"Ã½":7814,"Ø§Ø²ÛĮ":7815,"Zv":7816,"oll":7817,"gree":7818,"Ġ('":7819,">/":7820,"ĠSub":7821,"course":7822,"ido":7823,"ãĥ¼ãĥĪ":7824,"848":7825,"Op":7826,"Za":7827,"NY":7828,"è§£":7829,"Ġallow":7830,"Other":7831,"ÑĥÐ´":7832,"ç¤¾":7833,"ston":7834,"Ġms":7835,"ÙĬÙĦ":7836,"ĠĠĉĉĉĉĉĉĉĉĉ":7837,"507":7838,"IK":7839,"hostname":7840,"pril":7841,"ĠØ¥":7842,"ĠAdd":7843,"Cl":7844,"nia":7845,"galeri":7846,"Ġsk":7847,"War":7848,"anta":7849,"åľº":7850,"udents":7851,"xk":7852,"æĻĤ":7853,"ĠImage":7854,"Ð°Ð»ÑĮ":7855,"Â¥":7856,"674":7857,"Ġest":7858,"(\"<":7859,"blick":7860,"Ġforum":7861,"canonical":7862,"578":7863,"322":7864,"à¤®":7865,"payment":7866,"Hotels":7867,"IO":7868,"Nr":7869,"777":7870,"pageview":7871,"577":7872,"Events":7873,"raw":7874,"yin":7875,"Â§":7876,"ĠÑĢÐµ":7877,"Fj":7878,"èº":7879,"TL":7880,"abc":7881,"ĠĠĠĠĠĠĠĉ":7882,"ØªØµ":7883,"tron":7884,"ĠPM":7885,"ford":7886,"gas":7887,"Public":7888,"dil":7889,"rakuten":7890,"Ø±Ùģ":7891,"ĠOut":7892,"autocomplete":7893,"Next":7894,"ãĤĪ":7895,"Bi":7896,"KL":7897,"education":7898,"509":7899,"Ġlook":7900,"æĬ¥":7901,"juegos":7902,"Hover":7903,"Ġcategories":7904,"anh":7905,"vu":7906,"jump":7907,"},{&":7908,"ÐĽ":7909,"Ux":7910,"elf":7911,"bas":7912,"459":7913,"á»Ļ":7914,"rat":7915,"ĠVi":7916,"Ø§Øµ":7917,"Tile":7918,"çİ°":7919,"readonly":7920,"807":7921,"à¤¯":7922,"æĶ¶":7923,"506":7924,"tL":7925,"ĠĉĉĉĉĉĉĉĉĉĉĠĉĉĉĉĉĉĉĉĉĉ":7926,"NwYW":7927,"gori":7928,"åĲĮ":7929,"pictures":7930,"ĠÏĥÏĦ":7931,"Ġflag":7932,"Ġinfo":7933,"solutions":7934,"NN":7935,"anger":7936,"ĠStar":7937,"Ok":7938,"Featured":7939,"RSS":7940,"Ġsecond":7941,"/',":7942,"basket":7943,"Language":7944,");\"><":7945,"Ġbrowser":7946,"Base":7947,"Ð¤":7948,"ticket":7949,"ooks":7950,"ALAAAAAABAAEAAAIC":7951,"ĠGet":7952,"ãĥĵ":7953,"806":7954,"lance":7955,"955":7956,"ĠÐĶ":7957,"Life":7958,"mw":7959,"File":7960,"crumb":7961,"}}\"":7962,"Details":7963,"æ£":7964,"Ã¼n":7965,"Ġkey":7966,"ãĥ§":7967,"Ð°Ð´":7968,"ĠØ·":7969,"istan":7970,"æĹħ":7971,"tivo":7972,"496":7973,"demo":7974,"Ġfjs":7975,"ĠWar":7976,"åİŁ":7977,"wu":7978,"Test":7979,"ĠMy":7980,"Ø±ÛĮÙĨ":7981,"ĠĠĠĠĠĠĠĠĠĠĠĠĠĠĠĠĠĠĠĠĠĠĠĠĠĠĠĠĠĠĠĠĠĠĠĠĠĠĠĠĠĠĠĠĠĠĠĠĠĠĠĠĠĠĠ":7982,"sam":7983,"Ġ44":7984,"huff":7985,"Qy":7986,"282":7987,"Register":7988,"Ġside":7989,"393":7990,"ä»Ĭ":7991,"ĠÐ¸Ð·":7992,"Guid":7993,"Hidden":7994,"Ui":7995,"Ġ]]>":7996,"402":7997,"ĠAt":7998,"Fb":7999,"Yr":8000,"Passwd":8001,"mh":8002,"992":8003,"RW":8004,"FFF":8005,"BLIC":8006,"åħ¬åı¸":8007,"aven":8008,"onreadystatechange":8009,"poll":8010,"fox":8011,"Desktop":8012,"hicle":8013,"ql":8014,"where":8015,"261":8016,"vdW":8017,"342":8018,"494":8019,"ãģ¤":8020,"0435":8021,"ĠWatch":8022,"Ġdomain":8023,"è½½":8024,"Ġ75":8025,"ĠÑį":8026,"plafter":8027,"arrowimplafter":8028,"ĠÏĥ":8029,"283":8030,"bao":8031,"--><!--":8032,"wers":8033,"Ġhours":8034,"sab":8035,"}._":8036,"ĠĠĠĠĠĉĉĉĉ":8037,"Ġsupport":8038,"%;\">":8039,"1469":8040,"ĠĉĉĠĉĉĠĉĉĠĉĉ":8041,"jbGFzcz":8042,"ĠGo":8043,"progra":8044,"phones":8045,"é¢ĺ":8046,"clothing":8047,"sYXNz":8048,"())":8049,"æ¢":8050,"Mf":8051,"nos":8052,"323":8053,"Health":8054,"()\"":8055,"ĠFi":8056,"ZSB":8057,"published":8058,"TC":8059,"+</":8060,"nam":8061,"RR":8062,"ÑĤÐ°":8063,"wz":8064,"ih":8065,"dec":8066,"Ġwork":8067,"Ġ$('":8068,"çİĭ":8069,"ĠError":8070,"ĠPart":8071,"'){":8072,"Ġfb":8073,"åı·":8074,"?'":8075,"èĹ":8076,"UC":8077,"andyroid":8078,"Ġà´":8079,"grade":8080,"clean":8081,"include":8082,"Es":8083,"ĠGames":8084,"Ġein":8085,"Äĩ":8086,"ims":8087,"oper":8088,"nz":8089,"thor":8090,"ĉĉĉĉĉĉĉĉĉĉĉ":8091,"ais":8092,"Ġmit":8093,"èĬ±":8094,"ando":8095,"thes":8096,"Ġxt":8097,"dizi":8098,"tak":8099,"etc":8100,"Ð¾Ñĩ":8101,"lbl":8102,"ãĥ¼ãĤ¹":8103,"Compatible":8104,"Ġellipsis":8105,"otal":8106,"Ñĸ":8107,"MX":8108,"aca":8109,"gala":8110,"Ġí":8111,"Ġusing":8112,"Ġtranslate":8113,"Iv":8114,"Dr":8115,"263":8116,"ØªÙħ":8117,"620":8118,"Follow":8119,"áº¥":8120,"SY":8121,"1464":8122,"tif":8123,"_\"":8124,"Ġfr":8125,"yimg":8126,"ãĤĦ":8127,"Ġmi":8128,"åħī":8129,"udo":8130,"å©":8131,"Ġer":8132,"lq":8133,"================================":8134,"éĸĭ":8135,"########":8136,"Ġtxt":8137,"enta":8138,"jj":8139,"Server":8140,"456":8141,"665":8142,"channels":8143,"Vu":8144,"ç·":8145,"fotos":8146,"474":8147,"å¸ĥ":8148,"é£Ł":8149,"mal":8150,"xw":8151,"Ġ\"//":8152,"/=":8153,"çĦ¡":8154,"gold":8155,"ondon":8156,"Î¯Î±":8157,"tifi":8158,"Ġfieldset":8159,"Ha":8160,"Ðķ":8161,"495":8162,"Ġshould":8163,"dar":8164,"provider":8165,"utils":8166,"Ġits":8167,"Db":8168,"ãģĭãĤī":8169,"å®¢":8170,"COM":8171,"ê°":8172,"352":8173,"Hotel":8174,"Ġnavigation":8175,"imo":8176,"ÑĢÐµÐ´":8177,"ï½Ĺï½Ĺï½Ĺï½Ĺ":8178,"}</":8179,"hotels":8180,"ZuYnNwOyZuYnNwOy":8181,"847":8182,"INE":8183,"Cb":8184,"1010":8185,"aki":8186,"éķ¿":8187,"Îł":8188,"tek":8189,"aux":8190,"fort":8191,"cmp":8192,"Ġbusiness":8193,"Ret":8194,"Ġ=\"":8195,"331":8196,"\">-":8197,"çĽ´":8198,"Mer":8199,"bull":8200,"Ġday":8201,"ulta":8202,"ĠEmail":8203,"quire":8204,"å±ķ":8205,"sumer":8206,"Ġlogo":8207,"bam":8208,"sty":8209,"litary":8210,"668":8211,"ĠØ³Ø§ÙĦ":8212,"LX":8213,"nM":8214,"imple":8215,"HI":8216,"Arrow":8217,"Ġ64":8218,"ĠGame":8219,"AX":8220,"CRIP":8221,"timeout":8222,"bem":8223,"Wi":8224,"808":8225,"ĠĠĠĠĠĠĠĠĠĠĠĠĠĠĠĠĠĠĠĠĠĠĠĠĠĠĠĠĠĠĠĠĠĠĠĠĠĠĠĠĠĠĠĠĠĠĠĠĠĠĠĠĠĠĠĠĠĠĠĠĠĠĠĠĠĠĠĠĠĠĠĠĠĠĠĠĠĠĠĠĠĠĠĠĠĠĠĠ":8226,"Ġtool":8227,"\"});":8228,"utter":8229,"Ai":8230,"FQ":8231,"rule":8232,"did":8233,"ĠPar":8234,"wD":8235,"was":8236,"996":8237,"LB":8238,"ĠDown":8239,"allo":8240,"=\"/~":8241,"Ġ\"@":8242,"608":8243,"ãģ£ãģŁ":8244,"ĠÙĥ":8245,"055":8246,"mension":8247,"woff":8248,"809":8249,";|":8250,"Gi":8251,"yon":8252,"gio":8253,"ä½į":8254,"Exception":8255,"everything":8256,"Ġinto":8257,"Ø´ÙĨ":8258,"Rhd":8259,"bate":8260,"Ġnext":8261,"tf":8262,"414":8263,"Zp":8264,"ÑģÐºÐ¸Ð¹":8265,"\":\"//":8266,"ãĢĤ</":8267,"sored":8268,"Ġà®":8269,"Cre":8270,"sian":8271,"ĠÄ°":8272,"iPhone":8273,"method":8274,"ills":8275,"516":8276,"ĠSystem":8277,"expand":8278,"ìł":8279,"TN":8280,"_Ā":8281,"sic":8282,"']=":8283,"èº«":8284,"ĠTer":8285,"Ġhigh":8286,"futbol":8287,"ãĥŁ":8288,"mation":8289,"Ġdays":8290,"372":8291,"eee":8292,"generic":8293,"MDA":8294,"ĠLife":8295,"Ø§ÙĨÙĩ":8296,"mote":8297,"Red":8298,"ĠĉĠĠĉ":8299,"lst":8300,"Ġvi":8301,"AJ":8302,"Center":8303,"bia":8304,"IGNsYXNz":8305,"cancel":8306,"áºŃ":8307,"éĩį":8308,"styled":8309,"Only":8310,"Ġneed":8311,"ç©º":8312,"uick":8313,"locali":8314,"anal":8315,"508":8316,"å£«":8317,"408":8318,"faces":8319,"Travel":8320,"Ġbanner":8321,"è¯Ħ":8322,"onto":8323,"BAQ":8324,"ÑĢÐ°Ð²":8325,"ĠDis":8326,"sas":8327,"\\-":8328,"Player":8329,"hz":8330,"Ġclose":8331,"sx":8332,"vendor":8333,"Ġscript":8334,"670":8335,"Vt":8336,"goto":8337,"Les":8338,"701":8339,"041":8340,"ĠØ§Ùħ":8341,"scrollTop":8342,"cad":8343,"sar":8344,"Mc":8345,"elect":8346,";_":8347,"nolog":8348,"models":8349,"oz":8350,"Qi":8351,"=[\"":8352,"UU":8353,"443":8354,"737":8355,"Ce":8356,"PO":8357,"846":8358,"points":8359,"Resource":8360,"485":8361,"likes":8362,"mazon":8363,"elcome":8364,"craft":8365,"trip":8366,"uts":8367,"0629":8368,"icid":8369,"answer":8370,"\\\\\\\\":8371,"lady":8372,"Parent":8373,"erman":8374,"ĠDay":8375,"nid":8376,"0438":8377,"library":8378,"affili":8379,"æļ":8380,"beh":8381,"Ġred":8382,"sku":8383,"vl":8384,"IDx":8385,"ÑĢÑĭ":8386,"]&&":8387,"ìĹ":8388,"begin":8389,"Offset":8390,"Ø·ÙĤØ³":8391,"Rate":8392,"çīĮ":8393,"xf":8394,"actor":8395,"à¸°":8396,"PI":8397,"1280":8398,"Ali":8399,"Nk":8400,"picker":8401,"Ġremove":8402,"Ġfade":8403,"ĠÐĲ":8404,"pas":8405,"seller":8406,"ssi":8407,"Windows":8408,"åŀĭ":8409,"678":8410,",[":8411,"scene":8412,"Ã¡n":8413,"akamaihd":8414,"éª":8415,"Ġ[[":8416,"srcset":8417,"Profile":8418,"709":8419,"Úĺ":8420,"why":8421,"tino":8422,"Foto":8423,"(//":8424,"ãĤ»":8425,"ural":8426,"ĠShow":8427,"||_.":8428,"cret":8429,"netd":8430,"scha":8431,"Qw":8432,"Jj":8433,"PW":8434,"ago":8435,"qz":8436,"çĪ±":8437,"isting":8438,"449":8439,"zcGFu":8440,"Ãªn":8441,"æĬķ":8442,"éĽ»":8443,"047":8444,"é¦ĸé¡µ":8445,"Jk":8446,"çĻ»":8447,"677":8448,"æ°ĳ":8449,"acional":8450,"ships":8451,"tier":8452,"ssen":8453,"Î·Î½":8454,"netdna":8455,"HER":8456,"announce":8457,"625":8458,"grow":8459,"adbl":8460,"Ġpay":8461,"Tube":8462,"eneral":8463,"lev":8464,"ils":8465,"ĠBlack":8466,"Wa":8467,"sns":8468,"uw":8469,"lider":8470,"ĠĉĉĉĠ":8471,"0639":8472,"athli":8473,"æĴŃ":8474,"ãĥĿ":8475,"tect":8476,"Ø§Ú©":8477,"<!--[":8478,"NCE":8479,"ĠÚĨ":8480,"675":8481,"escape":8482,"Ð¼Ð°":8483,"ctronics":8484,"Ø§Ø³ØªØ®Ø¯Ø§Ùħ":8485,"ìŀ":8486,"Ø§Ø·":8487,"composed":8488,"titulo":8489,"321":8490,"Sy":8491,"ÐĹ":8492,"Ġcollapse":8493,"nick":8494,"bullet":8495,"Ġsec":8496,"Mw":8497,"ĠÐĿ":8498,"AAAAAAAAAAAAAAAAAAAAAAAAAAAAAAAA":8499,"ĠMobile":8500,"409":8501,"849":8502,"407":8503,"stores":8504,"NV":8505,"Ġnh":8506,"MENT":8507,"Women":8508,"REF":8509,"Ø¬Ùħ":8510,"ãģĪ":8511,"metro":8512,"ÐµÑģÑĤ":8513,"ĠManager":8514,"à¸¸":8515,"rui":8516,"additional":8517,"payments":8518,"dog":8519,"ĠÐ²Ñĭ":8520,"United":8521,"éŁ³":8522,"tec":8523,"lent":8524,"roman":8525,"ĠBusiness":8526,"æ³¨":8527,"]*":8528,"+/":8529,"Gh":8530,"witch":8531,"Ste":8532,"ĠHTML":8533,"?_":8534,"ĠØ§ÙĦØ³":8535,"concat":8536,"attribute":8537,"demandware":8538,"èħ":8539,"precomposed":8540,",[\"":8541,"JPG":8542,"XF":8543,"corner":8544,"341":8545,"\"+\"":8546,"rv":8547,"cated":8548,"ety":8549,"ÙĬÙĪ":8550,"Ê±":8551,"877":8552,"498":8553,"Ou":8554,"interiors":8555,"Î±Î½":8556,"stand":8557,"åįİ":8558,"cons":8559,"ĠâĢľ":8560,"POST":8561,"Ġsta":8562,"è¿Ļ":8563,"zs":8564,"zion":8565,"ĠAM":8566,"ources":8567,"larÄ±":8568,"nex":8569,"ÙĦØ§Ùħ":8570,"well":8571,"GoogleAnalytics":8572,"ĠĠĠĠĠĠĠĠĠĠĠĠĠĠĠĠĠĠĠĠĉ":8573,"___":8574,"ĠSie":8575,"Ġ2014":8576,"Function":8577,"att":8578,"ĠsetTimeout":8579,"oy":8580,"Ġmanual":8581,"635":8582,"IQ":8583,"æĹł":8584,"ette":8585,"private":8586,"ãģ©":8587,"ĠMark":8588,"ĉĉĉĉĉĉĉĉĉĉ":8589,"ĠPlus":8590,"uff":8591,"){}}":8592,"acter":8593,"()},":8594,"14836":8595,"Ġjust":8596,"Ġavailable":8597,"271":8598,"mast":8599,"joy":8600,"MAX":8601,"testimon":8602,"à¸¹":8603,"609":8604,"mundo":8605,"å¾®":8606,"berg":8607,"ÏīÎ½":8608,"aff":8609,"Source":8610,"jum":8611,"tte":8612,"447":8613,"Care":8614,"KK":8615,"{'":8616,"kc":8617,"2017":8618,"VIE":8619,"Feed":8620,"pression":8621,"oacute":8622,"ĠĉĠĠĠĠĉ":8623,"made":8624,"ĠMedia":8625,"ãģªãģĦ":8626,"ĠAccessories":8627,"TU":8628,"<Ā":8629,"TG":8630,"ĠJava":8631,"NB":8632,"Second":8633,"ØŃÙħ":8634,")});":8635,"Multi":8636,"åĪ¶":8637,"Overlay":8638,"è¼":8639,"sof":8640,"ï¿¥":8641,"Yi":8642,"'))":8643,"Die":8644,"World":8645,"045":8646,"Tran":8647,"pedia":8648,"jer":8649,"Ġci":8650,"Ø²Ø§Ø±":8651,"Ġdropdown":8652,"logged":8653,"[\\":8654,"IGHT":8655,"Ġ(-":8656,"Ġshop":8657,"lad":8658,"visit":8659,"Ele":8660,"è¦ĭ":8661,"laimer":8662,"353":8663,"Ġĉĉĉĉĉĉĉĉĉĉĉĉĉĉĉĉĉĉĉĉĉ":8664,"womens":8665,"ä¸ľ":8666,"MH":8667,"Cc":8668,"ĠEl":8669,"Focus":8670,"},&":8671,"ĠÐĳ":8672,"identifier":8673,"hg":8674,"Inner":8675,"ced":8676,"012":8677,"rench":8678,"zing":8679,"Ġ'#":8680,"sin":8681,"ĠCity":8682,"Animation":8683,"CU":8684,"RG":8685,"=\"ãĢĲ":8686,"Ġcomp":8687,"pure":8688,"webapp":8689,"428":8690,"Ġ255":8691,"IDE":8692,"Ú¯Ø§Ùĩ":8693,"lGODlhAQABA":8694,"newby":8695,"Ġche":8696,"athlitika":8697,"forumdisplay":8698,"Ġpeople":8699,"camera":8700,"636":8701,"Super":8702,"houseinteriors":8703,"newbyhouseinteriors":8704,"åıĭ":8705,"Ġdownload":8706,"ĠPU":8707,"Hel":8708,"Np":8709,"Screen":8710,"finite":8711,"Yq":8712,"Sites":8713,"microsoft":8714,"Fu":8715,"uIHZhbHVl":8716,"lasses":8717,"drfront":8718,"Special":8719,"process":8720,"party":8721,"Forum":8722,"Ġlong":8723,"659":8724,"lian":8725,"Ġleaf":8726,"Helvetica":8727,"nas":8728,"france":8729,"JSON":8730,"$/":8731,"ravel":8732,"tput":8733,"science":8734,"selida":8735,"hZ":8736,"Fly":8737,"ering":8738,"ĠUSAA":8739,"Â¨":8740,"Ġpres":8741,"ĠSte":8742,"909":8743,"Story":8744,"gel":8745,"nat":8746,"selection":8747,"GTM":8748,"birth":8749,"Create":8750,"æ©Ł":8751,"mato":8752,"446":8753,"Hi":8754,"qs":8755,")\",\"":8756,"695":8757,"rum":8758,"topnav":8759,"fem":8760,"final":8761,"Ġhand":8762,"Zx":8763,"ãģĽ":8764,"Ġold":8765,"metrics":8766,"ĠØ¨Ø±Ø§ÛĮ":8767,"'\">":8768,"Drop":8769,"ĠCenter":8770,"Ġmonth":8771,"Cy":8772,"Jz":8773,"lover":8774,"cked":8775,"trim":8776,"ĠØ§Ø±":8777,"adas":8778,"';\"":8779,"Ġwhich":8780,"Kz":8781,"ĠĠĠĠĠĠĠĠĠĠĠĠĠĠĠĠĠĠĠĠĠĠĠĠĠĠĠĠĠĠĠĠĠĠĠĠĠĠĠĠĠĠĠĠĠĠĠĠĠĠĠĠĠĠĠĠĠĠĠĠĠĠĠĠĠĠĠĠĠĠĠĠĠĠĠĠĠĠĠĠĠĠĠĠĠ":8782,"Ġitems":8783,"Ġico":8784,"äº¤":8785,"loor":8786,"ĠOff":8787,"fillText":8788,"fect":8789,"897":8790,"champion":8791,"substr":8792,"scu":8793,"tish":8794,"Ġ\"#":8795,"ĠCor":8796,"protoselida":8797,"yor":8798,"desig":8799,"oe":8800,"015":8801,"Ġflex":8802,"Ĭ¤":8803,"swiper":8804,"ĠSp":8805,"Ky":8806,"rg":8807,"ploy":8808,"MW":8809,"lien":8810,"756":8811,"kYX":8812,"AW":8813,"ose":8814,"èŃ":8815,"niversity":8816,"ERS":8817,"hdr":8818,"è·¯":8819,"MV":8820,"568":8821,"Ġbi":8822,"visor":8823,"æĽ´å¤ļ":8824,"eW":8825,"woocommerce":8826,"ĠInsurance":8827,"\"};":8828,"MG":8829,"ĠFil":8830,"owl":8831,"çĮ":8832,"434":8833,"shot":8834,"ÑĤÐ¸":8835,"graphy":8836,"ĠØ§ÛĮÙĨ":8837,"NW":8838,"uppercase":8839,",\\":8840,"raz":8841,"nx":8842,"atri":8843,"Transform":8844,"HH":8845,"dist":8846,"mise":8847,"à¹Ĥ":8848,"nba":8849,"Ea":8850,"FS":8851,"Ġpour":8852,"057":8853,"ICK":8854,"Latest":8855,"Ġfind":8856,"Sec":8857,"æµģ":8858,"nin":8859,"Â¶":8860,"1607":8861,"å®ŀ":8862,"53727":8863,"lists":8864,"Ġzu":8865,"rek":8866,"sci":8867,"hack":8868,"TAu":8869,"ssa":8870,"asing":8871,"bread":8872,"ĠĠĠĠĉĉĉĉĉĉ":8873,"Jt":8874,"679":8875,"è¡£":8876,"emi":8877,"840":8878,"itu":8879,"419":8880,"$('":8881,"èİ":8882,"regular":8883,"reve":8884,"063":8885,"Ġ%>":8886,"risti":8887,"æ¬¡":8888,"ĠTran":8889,"Xz":8890,"unds":8891,"six":8892,"Zz":8893,"å¤ı":8894,"Îļ":8895,"æ¹":8896,"estival":8897,"([\"":8898,"Ġdoes":8899,"livedoor":8900,"Categories":8901,"Ġmod":8902,"ìĦ":8903,"878":8904,"åĦ¿":8905,"(&#":8906,"aria":8907,"351":8908,"Ġmb":8909,"dimension":8910,"stage":8911,"blockquote":8912,"èĦ":8913,"898":8914,"NR":8915,"ampaign":8916,"know":8917,"520":8918,"Ġol":8919,"Popular":8920,"ĠTa":8921,"ixel":8922,"7777":8923,"UY":8924,"Ð½ÑĭÑħ":8925,"mint":8926,"868":8927,"ÑĭÐµ":8928,"rip":8929,"460":8930,"iden":8931,"\\\">\\":8932,"lÄ±":8933,"martphone":8934,"908":8935,"resp":8936,"tao":8937,"ĠĉĠĠĠĠĠĠĠĠĠĠĠĠĠĠĠ":8938,"package":8939,"Ġ._":8940,"Uk":8941,"Ġlu":8942,"ece":8943,"åŃ£":8944,"CP":8945,"ĠĉĉĉĉĠ":8946,"native":8947,"wri":8948,"Ft":8949,"Has":8950,"dad":8951,"ists":8952,"Ah":8953,"ĠĠĠĠĠĉĉĉĉĉĉ":8954,"voice":8955,"æĦŁ":8956,"ĠTime":8957,"CRIPT":8958,"}}.":8959,"ĠĠĠĠĠĠĠĠĠĠĉ":8960,"aku":8961,"Ġlive":8962,"optimi":8963,"Ġmiddle":8964,"Sum":8965,"task":8966,"887":8967,"Validation":8968,"gran":8969,"dic":8970,"nment":8971,"ĠÃ©":8972,"Â©":8973,"checkout":8974,"Assets":8975,"Bw":8976,"ĠĉĉĠĠ":8977,"464":8978,"zip":8979,"otor":8980,"Ġ31":8981,"keys":8982,"Ġpromo":8983,"åħ·":8984,"Ġpass":8985,"ãĤ¬":8986,"NCgkJ":8987,"ĠØ§ÛĮØ±Ø§ÙĨ":8988,"brity":8989,"||{":8990,"ÑĥÐ¿":8991,"³</":8992,"ĠØ¹ÙĦÙī":8993,"kle":8994,"%=":8995,"refox":8996,"riv":8997,"ĠMin":8998,"panese":8999,"à¦®":9000,"ĠAccount":9001,"046":9002,"Ġnon":9003,"429":9004,"...\"":9005,"Not":9006,"DR":9007,"night":9008,"ancy":9009,"jian":9010,"Hide":9011,"Î±ÏĦ":9012,"Light":9013,"ĠĉĉĉĉĉĠ":9014,"burger":9015,"55356":9016,"ĠTech":9017,"yp":9018,"&&_.":9019,"ODU":9020,"Ġthey":9021,"Ø§ÛĮÛĮ":9022,"ÎµÏĤ":9023,"ÙĪØ¨":9024,"slick":9025,"ĠĠĠĠĠĠĠĠĠĠĠĠĠĠĠĠĠĠĠĠĠĠĠĠĠĠĠĠĠĠĠĠĠĠĠĠĠĠĠĠĠĠĠĠĠĠĠĠĠĠĠĠĠĠĠĠĠĠĠĠĠĠĠĠĠĠĠĠĠĠĠĠĠĠĠĠĠ":9026,"tirement":9027,"isten":9028,"DL":9029,"×ľ":9030,"Ġsex":9031,"3000":9032,"åŃĹ":9033,"994":9034,"Ā:":9035,"896":9036,"ALL":9037,"parseInt":9038,"qt":9039,"åį¡":9040,"ãģĿ":9041,"æ¯Ķ":9042,"Offi":9043,"bid":9044,"æıĲ":9045,"ĠĉĉĠĠĠĠĠĠĠĠ":9046,"ÆĴÃĲ":9047,"Ajax":9048,"PK":9049,"dg":9050,"ÃĲÆĴÃĲ":9051,"ä¸İ":9052,"é¥":9053,"Ø¨Ø§ÙĦ":9054,"392":9055,"ÑĬ":9056,"gift":9057,"timg":9058,"Ġproducts":9059,"Ġter":9060,"arance":9061,"å¡":9062,"(\"/":9063,"Ġsee":9064,"çİ©":9065,"0001":9066,"lGODlhAQAB":9067,"ĠInc":9068,"conf":9069,"äºİ":9070,"çº§":9071,"mz":9072,"ãĥ³ãĤ°":9073,"hw":9074,"QC":9075,"ables":9076,"Fix":9077,"056":9078,"culator":9079,"ĠĉĠĠ":9080,"vita":9081,"476":9082,"buh":9083,"beat":9084,"ized":9085,"riend":9086,"Fr":9087,"Zone":9088,"dx":9089,"478":9090,"cinema":9091,"drive":9092,"hate":9093,"Ġobj":9094,"publisher":9095,"Vs":9096,"ational":9097,"858":9098,"363":9099,"IGNsYXNzPSJ":9100,"opup":9101,"cats":9102,"ìĭ":9103,"ĠJS":9104,"Ju":9105,"MDE":9106,"olx":9107,"\",[\"":9108,"658":9109,"Ġrepeat":9110,"Ġ['":9111,"ĠÙĪØ§ÙĦ":9112,"Qx":9113,"pager":9114,".&":9115,"Ġoptions":9116,"ĠNet":9117,"054":9118,"ortg":9119,"754":9120,"é¢ĳ":9121,"013":9122,"Dw":9123,"Css":9124,"Ġblack":9125,"tops":9126,"allenge":9127,"AI":9128,"Ġ[\"":9129,"editorial":9130,"2222":9131,"978":9132,"Ġbegin":9133,"879":9134,"recommend":9135,"Ġmessage":9136,"parentId":9137,"Float":9138,"lich":9139,"886":9140,"removeEventListener":9141,";\\":9142,"FG":9143,"ALUE":9144,"Ġregion":9145,"Ð¸Ñħ":9146,"å°ĳ":9147,"QB":9148,"overview":9149,"403":9150,"keyCode":9151,"aHR":9152,"jy":9153,"High":9154,"Ġdf":9155,"ĠOffi":9156,"çĿ":9157,"é¾":9158,"ĠĠĠĠĠĠĉĉ":9159,"è´¹":9160,"Fz":9161,"Ð´Ð°":9162,"Ġvon":9163,"4444":9164,"Td":9165,"rr":9166,"ãĢİ":9167,"Om":9168,"ä¹Ī":9169,"889":9170,"vertising":9171,"ÙĩØ±":9172,"672":9173,"then":9174,"Ms":9175,"ĠHer":9176,"çĻ¾":9177,"yandex":9178,".$_":9179,"Ġparse":9180,"Flash":9181,"vars":9182,"acher":9183,"Ġ).":9184,"æ¸ħ":9185,"ãģ¾ãģĻ":9186,"Met":9187,"Ġvia":9188,"vor":9189,"æĶ¾":9190,"Fore":9191,"ĠÐ¢":9192,"wave":9193,"}}</":9194,"åĲİ":9195,"JG":9196,"ĠAu":9197,"previous":9198,"Mac":9199,"tac":9200,"éĩĮ":9201,"Yw":9202,"Yx":9203,"tut":9204,"olutions":9205,"oto":9206,"unded":9207,"067":9208,"Yn":9209,"muni":9210,"corporate":9211,"Colorstr":9212,"subscription":9213,"lng":9214,"Ġoriginal":9215,"050":9216,"ãĤ·ãĥ§":9217,"italic":9218,"SSL":9219,"legend":9220,"imagenes":9221,"Ġorder":9222,"Ġvalid":9223,"aciÃ³n":9224,"Dy":9225,"Âº":9226,"cfm":9227,"fancybox":9228,"jack":9229,"\"}],\"":9230,"ä¸ĸçķĮ":9231,"XC":9232,"874":9233,"Ġdirection":9234,"adu":9235,"tives":9236,"654":9237,"Ġ48":9238,"stone":9239,"material":9240,"vey":9241,"rez":9242,"rown":9243,"msapplication":9244,"Types":9245,"Ġknow":9246,"idx":9247,"ingtonpost":9248,"disco":9249,"448":9250,"ĠÎ³":9251,"icht":9252,"515":9253,"Ġcontract":9254,"Mx":9255,"504":9256,"WP":9257,"Art":9258,")&":9259,"uge":9260,"ciÃ³n":9261,"ÙĦØ¨":9262,"lifeevents":9263,"ote":9264,"Ġconsole":9265,"oggle":9266,"JB":9267,"){\"":9268,"categoryId":9269,"ãĢı":9270,"è¿Ľ":9271,"Ġmatch":9272,"ORT":9273,"422":9274,"311":9275,"cacheid":9276,"Rs":9277,"698":9278,"sizes":9279,"VC":9280,"lista":9281,"updated":9282,"refix":9283,"ĠFull":9284,"572":9285,"hua":9286,"é£İ":9287,"ually":9288,"Ġdon":9289,"arth":9290,"imi":9291,"å¸Ī":9292,"Blue":9293,"OX":9294,"Ġgames":9295,"his":9296,"ITE":9297,"åįķ":9298,"Side":9299,"ÑģÐµ":9300,"Ġgu":9301,"åĩ»":9302,"req":9303,"497":9304,"Call":9305,"Æ¡":9306,"Ġà¤¸":9307,"bnR":9308,"Ġgads":9309,"856":9310,"669":9311,"XXXXXXXX":9312,"Ð»ÑĮ":9313,"666666":9314,"Mm":9315,"Ð¸Ð»ÑĮ":9316,"sections":9317,"nv":9318,"screenshots":9319,"bour":9320,"resizable":9321,"bill":9322,"adult":9323,"ĠÅ":9324,"Pk":9325,"ãĤ¤ãĥĪ":9326,"Spry":9327,"taW":9328,";|&":9329,"Ġbuy":9330,"ĠÙħØ¹":9331,"Ġvs":9332,"ĠYa":9333,"ĠSch":9334,"ê³":9335,"#?":9336,"Wl":9337,"ĠBlog":9338,"Real":9339,"ĠGar":9340,"×Ķ":9341,"ÑģÑĤÑĮ":9342,"+-":9343,"ĠĉĠĠĠĠĠĠĠĠĠĠĠĠĠĠĠĠĠĠĠ":9344,"datePublished":9345,"cies":9346,"lec":9347,"anda":9348,"ella":9349,"Î²":9350,"recipe":9351,"-/":9352,"ubar":9353,"foaf":9354,"1003":9355,"ĠĠĉĉĉĉĉĉĉĉĉĉ":9356,"ãĥĥãĥĹ":9357,"ĠĠĠĠĠĠĠĠĠĠĠĠĠĠĠĠĠĠĠĠĠĠĠĠĠĠĠĠĠĠĠĠĠĠĠĠĠĠĠĠĠĠĠĠĠĠĠĠĠĠĠĠĠĠĠĠĠĠĠĠĠĠĠĠĠĠĠĠĠĠĠĠĠĠĠĠĠĠĠĠĠ":9358,"tty":9359,"FI":9360,"Ø§ÙħÙĩ":9361,"sbox":9362,"ĠSu":9363,"371":9364,"alaxy":9365,"caps":9366,"plain":9367,"arm":9368,"registration":9369,"Upload":9370,"iet":9371,"ÙģÙĬ":9372,"Ġtracking":9373,"spaÃ±":9374,"sugges":9375,"np":9376,"ceive":9377,"Ġincre":9378,"æīĭæľº":9379,"Ġrun":9380,"players":9381,"venue":9382,"taobao":9383,"755":9384,"Si":9385,"dC":9386,"ÂĲ":9387,"\"</":9388,"455":9389,"alen":9390,"Uti":9391,"Ġ33":9392,"ogp":9393,"afety":9394,"]&&(":9395,"liga":9396,"booking":9397,"DT":9398,"à¦¸":9399,"à®¿":9400,"ule":9401,"wpe":9402,"NP":9403,"hold":9404,"å°±":9405,"895":9406,"(\\":9407,"Yo":9408,"Ġ''":9409,"resolution":9410,"ÑĢÐ°Ð½":9411,"ĠSTART":9412,"ãĥ¼ãĥ«":9413,"MF":9414,"aacute":9415,")||(":9416,"Gk":9417,"è®º":9418,"362":9419,"nth":9420,"çĻº":9421,"bilder":9422,"Ā_Ā":9423,"diy":9424,"record":9425,"ÛĮØª":9426,"415":9427,"-\",":9428,"dified":9429,"Va":9430,"popover":9431,"4787":9432,"gbqfb":9433,"WN":9434,"Ġref":9435,"hon":9436,"Our":9437,"lazada":9438,"hip":9439,"rait":9440,"ĠÐ¶":9441,"Ry":9442,"spinner":9443,"folio":9444,"portada":9445,"micro":9446,"filters":9447,"ĠÚ©ÙĨ":9448,"bei":9449,"ustra":9450,"Ez":9451,"+(":9452,"Bs":9453,"ught":9454,"Ġ72":9455,"ifest":9456,"ĠCategory":9457,"ä¸ĭè½½":9458,"801":9459,"Ð§":9460,"meteo":9461,"æ±Ł":9462,"sponsor":9463,"gender":9464,"brid":9465,"charAt":9466,"Ġmega":9467,"rend":9468,"($(":9469,"Ġmodule":9470,"382":9471,"çĽ¸":9472,"affiliate":9473,"8221":9474,"BAEK":9475,"ãĥķ":9476,".\",":9477,"åĳ¨":9478,"Ġoutline":9479,"æģ¯":9480,"ĠPUBLIC":9481,"rsrc":9482,"Access":9483,"forgot":9484,"cab":9485,"Grid":9486,"KR":9487,"Ø´ÛĮ":9488,"Ġagain":9489,"Ġpopup":9490,"flight":9491,"{\\\"":9492,"Î¡":9493,"510":9494,"Sans":9495,"tico":9496,"à¸Ľ":9497,"'},":9498,"±Û":9499,"Ġpla":9500,"ĠSet":9501,"dealnews":9502,"æ¼«":9503,"å¾Ĺ":9504,"nton":9505,"irls":9506,"inherit":9507,"1575":9508,"æīĵ":9509,"evar":9510,"ales":9511,"wire":9512,"reme":9513,"Desc":9514,"à´¿":9515,"20160425":9516,"æĥ³":9517,"Current":9518,"LU":9519,"bv":9520,"unstyled":9521,"946":9522,"Rpb":9523,"KY":9524,"Ġauf":9525,"ĠĉĉĉĠĠĠĠĠĠĠ":9526,"ĠÐµ":9527,"frm":9528,"LV":9529,"416":9530,"subforum":9531,"693":9532,"éĢī":9533,"049":9534,"å®¹":9535,"ê¸°":9536,"parts":9537,"BAEAAAA":9538,"ĠĉĠĠĠĠ":9539,"ÙģØ±":9540,"Jv":9541,"Ġste":9542,"048":9543,"073":9544,"361":9545,"ĠLive":9546,"welry":9547,"bags":9548,"ÐŁÑĢ":9549,"ÐµÐ¶":9550,"gat":9551,"spo":9552,"scrollable":9553,"051":9554,"Layout":9555,"EAOw":9556,"');</":9557,"fang":9558,"ä½ķ":9559,"pul":9560,"idi":9561,"501":9562,"åħį":9563,"rica":9564,"otre":9565,"Ġsf":9566,"rites":9567,"cG":9568,"à¤¹":9569,"hui":9570,"Ġ})":9571,"law":9572,"ĠIndia":9573,"disable":9574,"Zn":9575,"Ġlife":9576,"&Ā":9577,"names":9578,"çĻ½":9579,"Save":9580,"Mv":9581,"]){":9582,"Ġuk":9583,"Ql":9584,"ĠĠĠĠĠĠĠĠĠĠĠĠĠĠĠĠĠĠĠĠĠĠĠĠĠĠĠĠĠĠĠĠĠĠĠĠĠĠĠĠĠĠĠĠĠĠĠĠĠĠĠĠĠĠĠĠĠĠĠĠĠĠ":9585,"ç´¢":9586,"googletagmanager":9587,"Cd":9588,"<Ā/Ā":9589,"Ð¿Ð»":9590,"bnr":9591,"ç®¡":9592,"Ġà°":9593,"058":9594,"HS":9595,"ashion":9596,"qm":9597,"8220":9598,"Ġ//]]>":9599,"ÎĹ":9600,"458":9601,"Cache":9602,"Ġmust":9603,"analog":9604,"tmall":9605,"Ġum":9606,"Ġfun":9607,"éĸĵ":9608,"KA":9609,"Ġcms":9610,"QT":9611,"803":9612,"dou":9613,"||[]).":9614,"samsung":9615,"\"],[\"":9616,"kaXY":9617,"èĤ²":9618,"Ø¹Ø¯":9619,"({\"":9620,"Ã¬":9621,"IW":9622,"Short":9623,"Ø±Ø³":9624,"Î¿Î½":9625,"sla":9626,"soccer":9627,"Ġpane":9628,"cookies":9629,"petition":9630,"940":9631,"14628":9632,"Ð¾Ð´Ð°":9633,"owner":9634,"Fc":9635,"ĠEnter":9636,"uel":9637,"deportes":9638,"ĠDE":9639,"ĠÐŀ":9640,"Fv":9641,"partners":9642,"Fn":9643,"loop":9644,"Â¹":9645,"Dm":9646,"MR":9647,"Ġthem":9648,"å¦Ĥ":9649,"auti":9650,"Ġservices":9651,"kie":9652,"ë¡":9653,"ÙĪØ§ÙĨ":9654,"èĢĥ":9655,"kel":9656,"\");</":9657,"Ġundefined":9658,"qf":9659,"Gar":9660,"variant":9661,"430":9662,"bild":9663,"Ġtwo":9664,"atel":9665,"izle":9666,"MTk":9667,"ç¢":9668,"corp":9669,"ĠEvent":9670,"nodeName":9671,"kYXRh":9672,"VA":9673,"Hh":9674,"Ā=Ā\"Ā":9675,",\\\"":9676,"Ġgb":9677,"Don":9678,"enc":9679,"legacy":9680,"TAEAOw":9681,"reply":9682,"Uw":9683,"Ġcho":9684,"ALAAAAAABAAEAAAICTAEAOw":9685,"Ze":9686,"ÎĿ":9687,"liz":9688,"downloads":9689,"latform":9690,"ĠĉĉĉĉĉĉĉĉĠĉĉĉĉĉĉĉ":9691,"ears":9692,"ÑĤÐµÑĢ":9693,"Vl":9694,"dtd":9695,"çĸ":9696,"959":9697,"Param":9698,"dept":9699,"ÎµÏģ":9700,"Oc":9701,"careers":9702,"FP":9703,"rocket":9704,"æĬĺ":9705,"Qm":9706,"living":9707,"WVud":9708,"FJ":9709,"ssy":9710,"Init":9711,"AAEALAAAAAABAAEAAAICTAEAOw":9712,"gk":9713,"ĠĉĉĠĠĠĠĠĠĠĠĠĠĠ":9714,"\"))":9715,"tification":9716,"551":9717,"++++":9718,"uru":9719,"ãĥ¼ãĥī":9720,"é¤":9721,"!/":9722,"424":9723,"KCQkJ":9724,"lower":9725,"Ġcreate":9726,"ĠĉĉĠĠĉĉ":9727,"Ð¼Ð¾ÑĤ":9728,"413":9729,"controller":9730,"ticia":9731,"alicdn":9732,"rar":9733,"ĠĉĠĠĠĠĠ":9734,"VER":9735,"talk":9736,"Ġou":9737,"Cr":9738,"Ġcover":9739,"à²":9740,"stro":9741,"383":9742,"Ġinte":9743,"ĠÚ©Ùĩ":9744,",(":9745,"çĶ»åĥı":9746,">>":9747,"Loading":9748,"hv":9749,"management":9750,"è¯ķ":9751,"Qo":9752,"Word":9753,"ĠSale":9754,"Cal":9755,"ĠAuto":9756,"Now":9757,"Ġcu":9758,"ãĤĥ":9759,">|<":9760,"iacute":9761,"Empty":9762,"eri":9763,"767":9764,"ength":9765,"å»º":9766,"Hd":9767,"ĠSign":9768,"Ġlatest":9769,"Client":9770,"Vj":9771,"Ð²Ð°":9772,"onder":9773,"statistics":9774,"prime":9775,"wwLj":9776,"Ġ((":9777,"Ġ//-->":9778,"anews":9779,"gq":9780,"ĠĠĠĠĠĠĠĠĠĠĠĠĠĠĠĠĠĠĠĠĠĠĠĠĠĠĠĠĠĠĠĠĠĠĠĠĠĠĠĠĠĠĠĠĠĠĠĠĠĠĠĠĠĠĠĠĠĠĠ":9781,"added":9782,"bike":9783,"Clear":9784,"Jc":9785,"ĠCare":9786,"directory":9787,"ipad":9788,"Ġka":9789,"repor":9790,"8230":9791,"Ġescape":9792,"gmo":9793,"ticias":9794,"Mt":9795,"asia":9796,"wpb":9797,"EngName":9798,"Ġubermenu":9799,"drag":9800,"HN":9801,"Ġ\"-//":9802,"FW":9803,"fitness":9804,"435":9805,"Ġson":9806,"RhdGE":9807,"hab":9808,"umbers":9809,"querySelector":9810,"lGODlhAQABAAAA":9811,"/&":9812,"BAEKAAEALAAAAAABAAEAAAICTAEAOw":9813,"lek":9814,"Cp":9815,"Apple":9816,"wedding":9817,"FOR":9818,"ĠØ§Ùģ":9819,"metadata":9820,"destination":9821,"Vh":9822,"ì§":9823,"Ġ',":9824,"Ġfollow":9825,"mouseover":9826,"viron":9827,"()).":9828,"åĪĽ":9829,"tout":9830,"ĠÐ¸Ð½":9831,"Ġnum":9832,"ä»ĸ":9833,"åİ¿":9834,"install":9835,"qe":9836,"=\"/_":9837,"kf":9838,"åľĭ":9839,"Ġdown":9840,"ĠĠĠĠĠĠĠĠĠĠĠĠĠĠĠĠĠĠĠĠĠĠĠĠĠĠĠĠĠĠĠĠĠĠĠĠĠĠĠĠĠĠĠĠĠĠĠĠĠĠĠĠĠĠĠĠĠĠ":9841,"Pgo":9842,"opera":9843,"Ġfeed":9844,"BW":9845,"5555":9846,"--------------------------------":9847,"×ª":9848,"boxes":9849,"876":9850,"Ø´Ø±":9851,"Unit":9852,"Ãµ":9853,"robots":9854,"bag":9855,"ZZ":9856,"bbuh":9857,"manifest":9858,"Ġchild":9859,"Ġfilter":9860,"pak":9861,"Params":9862,"Ġba":9863,"èĢģ":9864,"778":9865,"spr":9866,"nen":9867,"âĸ":9868,"bove":9869,"1395":9870,"SQ":9871,"Sch":9872,"rave":9873,"]|":9874,"sina":9875,"ĠĠĠĠĠĠĠĠĠĠĠĠĠĠĠĠĠĠĠĠĠĠĠĠĠĉ":9876,"prd":9877,"ctlbbuh":9878,"708":9879,"Attr":9880,"lGODlhAQABAI":9881,"ĠĠĠĠĠĠĠĠĠĠĠĠĠĠĠĠĠĠĠĠĠĠĠĠĠĠĠĠĠĠĠĠĠĠĠĠĠĠĠĠĠĠĠĠĠĠĠĠĠĠĠĠĠĠĠĠĠĠĠĠĠĠĠĠĠĠĠĠĠĠĠĠĠ":9882,"suggest":9883,"ãĥ¢":9884,"water":9885,"lGODlhAQABAAAAACH":9886,"HRw":9887,"Accessories":9888,"ç«ĭ":9889,"Ā&Ā":9890,"Loader":9891,"jin":9892,"ãĤı":9893,"graphics":9894,"á»ĭ":9895,"DY":9896,"Ï·":9897,"ĠĉĉĉĉĉĉĉĉĉĉĉĠĉĉĉĉĉĉĉĉĉĉĉ":9898,"Tit":9899,"\",\"+":9900,"æĸ¯":9901,"categoria":9902,"uu":9903,"lei":9904,"yregb":9905,"Ġtu":9906,"äºĶ":9907,"alendar":9908,"zf":9909,"],[\"":9910,"ĠÎł":9911,"moto":9912,"391":9913,"Src":9914,"skip":9915,"\"}},\"":9916,"å¿«":9917,"Fun":9918,"558":9919,"yH":9920,"bbon":9921,"ĠInternet":9922,"Ã¶r":9923,"Ġcountry":9924,"426":9925,"race":9926,"ram":9927,"ãĥį":9928,"Ġ768":9929,"075":9930,"kv":9931,"å¥ĩ":9932,"ç¼":9933,"Sun":9934,"Ut":9935,"Ñ§":9936,"reco":9937,"yat":9938,"geek":9939,":%":9940,"802":9941,"éĩı":9942,"cias":9943,"radient":9944,"åł´":9945,"ĠÏĦÎ¿Ïħ":9946,"><![":9947,"Ev":9948,"ÙĨÛĮ":9949,"2008":9950,"à¥ģ":9951,"fab":9952,"grafi":9953,"979":9954,"Vars":9955,"Max":9956,"425":9957,"ĠâĢĶ":9958,"chool":9959,"inger":9960,"Kr":9961,"é©¬":9962,"rama":9963,"ÏĢÎ¿":9964,"Ġ{'":9965,"clone":9966,"qj":9967,"blocks":9968,"attle":9969,"ÑĨÐ¸Ñı":9970,"Channel":9971,"AH":9972,"lee":9973,"ÑĥÑĩ":9974,"á»ĥ":9975,"Ben":9976,"town":9977,"hbm":9978,"ÙĦØ³":9979,"598":9980,"ĠIf":9981,"blem":9982,"2009":9983,"NCi":9984,"ect":9985,"aker":9986,"Today":9987,"marke":9988,"ÑģÐºÐ°Ñı":9989,"omni":9990,"ĠĉĉĉĉĠĠĠ":9991,"Ð½Ð¾Ð¹":9992,"reference":9993,"dol":9994,"ĠClick":9995,"Ġcomment":9996,"å§ĭ":9997,"à«ĩ":9998,"çĨ":9999}