!
"
#
$
%
&
'
(
)
*
+
,
-
.
/
0
1
2
3
4
5
6
7
8
9
:
;
<
=
>
?
@
A
B
C
D
E
F
G
H
I
J
K
L
M
N
O
P
Q
R
S
T
U
V
W
X
Y
Z
[
\
]
^
_
`
a
b
c
d
e
f
g
h
i
j
k
l
m
n
o
p
q
r
s
t
u
v
w
x
y
z
{
|
}
~
¡
¢
£
¤
¥
¦
§
¨
©
ª
«
¬
®
¯
°
±
²
³
´
µ
¶
·
¸
¹
º
»
¼
½
¾
¿
À
Á
Â
Ã
Ä
Å
Æ
Ç
È
É
Ê
Ë
Ì
Í
Î
Ï
Ð
Ñ
Ò
Ó
Ô
Õ
Ö
×
Ø
Ù
Ú
Û
Ü
Ý
Þ
ß
à
á
â
ã
ä
å
æ
ç
è
é
ê
ë
ì
í
î
ï
ð
ñ
ò
ó
ô
õ
ö
÷
ø
ù
ú
û
ü
ý
þ
ÿ
Ā
ā
Ă
ă
Ą
ą
Ć
ć
Ĉ
ĉ
Ċ
ċ
Č
č
Ď
ď
Đ
đ
Ē
ē
Ĕ
ĕ
Ė
ė
Ę
ę
Ě
ě
Ĝ
ĝ
Ğ
ğ
Ġ
ġ
Ģ
ģ
Ĥ
ĥ
Ħ
ħ
Ĩ
ĩ
Ī
ī
Ĭ
ĭ
Į
į
İ
ı
Ĳ
ĳ
Ĵ
ĵ
Ķ
ķ
ĸ
Ĺ
ĺ
Ļ
ļ
Ľ
ľ
Ŀ
ŀ
Ł
ł
Ń
ĠĠ
ĠĠĠĠ
ĠĠĠĠĠĠĠĠ
ĉĉ
="
</
ĠĠĠĠĠĠĠĠĠĠĠĠĠĠĠĠ
la
">
on
re
di
Ġc
ss
li
te
le
Ġ<
ti
ĉĉĉĉ
lass
Ġclass
an
div
in
er
ar
ht
en
or
sp
st
co
Ġh
al
id
ref
ta
Ġhref
Ġ</
th
ge
//
></
><
me
tp
ĠĠĠĠĠĠĠĠĠĠĠĠĠĠĠĠĠĠĠĠĠĠĠĠĠĠĠĠĠĠĠĠ
tion
http
ro
span
ri
://
ww
Ġĉĉĉĉ
se
im
de
com
lo
ad
to
00
da
un
ac
"><
sc
ne
20
Ġs
ĠĠĠĠĠĠĠĠĠĠĠĠ
ent
con
age
Ġt
ch
":
pe
Ġĉĉ
ur
px
na
ig
--
ite
tle
nk
ng
at
);
data
ra
pt
="/
title
is
bo
16
,"
op
el
ter
ul
www
scri
ut
img
ce
Ġdata
ck
um
he
ue
script
get
it
ho
ma
Ġf
rc
ype
ca
Ġĉ
nt
do
us
xt
mo
"></
tr
='
il
item
ie
Ø§
Ġv
wid
ol
yle
ction
Ġtitle
ml
Ġp
10
style
Ġid
am
ct
Ġb
image
Ġĉĉĉĉĉĉĉĉ
Ġsrc
Ġ.
ing
no
ĠĠĠ
qu
","
text
ve
width
":"
si
ub
tent
html
der
Ġa
Ġ/
arget
if
oo
ight
14
15
ĠĠĠĠĠĠĠĠĠĠĠĠĠĠĠĠĠĠĠĠ
sh
link
po
tic
Ġ"
Ġ{
ack
12
ver
Ġtarget
Ġ0
="_
bla
Ġĉĉĉ
pro
men
up
ws
jp
Ġ'
fi
Ġ=
blank
option
2016
col
Ġĉĉĉĉĉĉ
ot
ãģ
top
Ġal
ĠĠĠĠĠĠĠĠĠĠĠĠĠĠĠĠĠĠĠĠĠĠĠĠĠĠĠĠĠĠĠĠĠĠĠĠĠĠĠĠĠĠĠĠĠĠĠĠĠĠĠĠĠĠĠĠĠĠĠĠĠĠĠĠ
as
av
ãĥ
Ġ}
es
name
et
',
for
25
){
td
Ġ1
unction
Ġstyle
ĠS
Ġre
jpg
and
lay
mar
ĠĠĠĠĠĠĠĠĠĠĠĠĠĠĠĠĠĠĠĠĠĠĠĠ
AA
alue
13
ment
__
menu
ĠÐ
Ġalt
gin
this
ft
we
Ġtype
icon
js
!--
ide
\/
05
22
('
du
pp
content
Ð¾
Ø±
ãĤ
one
Ð°
line
ga
are
Ġ(
ĠC
function
ic
ont
18
ort
ff
ab
",
gro
the
type
24
om
all
("
Ðµ
&#
Ġĉĉĉĉĉ
quot
und
nav
17
19
Ø§Ù
Ġin
https
/"
ed
ate
ĠĠĠĠĠĠĠĠĠĠĠĠĠĠĠĠĠĠĠĠĠĠĠĠĠĠĠĠ
-->
ĠØ
ory
ding
==
fo
Ġvalue
Ġ-
ĉĉĉĉĉĉĉĉ
ĠA
).
Ġwidth
br
amp
order
box
ÛĮ
Ð¸
30
ĠP
ĠT
ght
Ġhe
Ġ/>
left
lick
Ġon
39
ci
so
ze
go
ĠM
Ġo
04
à¸
dow
head
images
Ġw
blo
fa
news
Ġ#
64
gb
ava
ph
ton
em
ÙĪ
28
ĠĠĠĠĠĠ
29
arch
Ġheight
ure
urn
var
27
âĢ
ÑĤ
dex
list
ground
Ġ>
load
ackground
vie
33
ke
ticle
ner
gle
),
ir
java
medi
ia
pa
Ġe
11
set
Ùħ
javascript
&&
utton
26
99
cate
net
ÑĢ
str
ĠB
vent
form
Ð½
umb
/">
In
gory
ok
sub
right
Ġrel
article
tab
turn
art
page
},
den
au
fe
color
be
index
35
34
ali
row
splay
png
margin
Ġ<!--
ong
ou
Ñģ
ÃĲ
click
bi
url
put
=""
display
port
Ġ-->
lab
Ġname
nb
ument
sta
36
ĠD
Ø¯
50
Re
'>
ser
tag
80
button
Ġde
Ġcon
vi
doc
{"
ĉĉĉ
Ġĉĉĉĉĉĉĉ
per
sm
css
Ġm
Øª
ideo
web
post
les
ÙĨ
37
100
ry
}.
ĠF
font
new
dd
ty
ull
return
Ð¾Ð
ĠĠĠĠĠĠĠĠĠĠ
gn
ĠL
height
06
coun
ame
oogle
Ġn
block
search
Ġcol
category
Ġto
38
label
ly
media
meta
adding
home
Ġthe
ard
header
nbsp
document
');
ting
ay
ag
idden
duct
time
ation
66
cd
tain
min
app
dy
Ġg
à¤
57
ĠE
sition
ow
main
pre
||
size
low
thumb
ÙĦ
84
lear
ä¸
Ġ2
ion
ĠĠĠĠĠ
foo
()
Ùĩ
ob
lement
ĠH
ult
nd
ĠG
07
Ġand
background
\"
pri
85
_.
cat
ace
alse
ãĢ
ÙĬ
ers
indow
ex
gra
Ġvar
date
enter
Ġy
ans
end
wra
..
input
out
pla
44
ms
65
ity
je
video
wor
88
bar
Ø§Ø
site
strong
tom
ant
sk
"/
Id
Ø§ÙĦ
view
tn
eld
how
Ġfor
bot
90
cation
tainer
ï¼
Ġitem
os
75
Ġ&
Ġcontent
book
Ġd
our
Ð»
border
php
Name
src
lu
ba
ĠW
tive
-.
)}
wp
Ġr
Ġborder
40
();
;">
ak
tem
pi
product
],
hidden
69
ĠN
ru
ĠĠĠĠĠĠĠĠĠĠĠĠĠĠĠĠĠĠĠĠĠĠĠĠĠĠĠĠĠĠĠĠĠĠĠĠ
55
ll
87
footer
section
32
of
Ġla
cdn
use
60
ute
ine
bottom
67
Ġĉĉĉĉĉĉĉĉĉ
ĠĠĠĠĠĠĠĠĠ
IC
ass
Con
ign
gif
ies
static
padding
:#
Ġ+
og
ĠI
Ġno
down
="#
à¦
cn
mail
Element
Ðº
82
Ġĉĉĉĉĉĉĉĉĉĉĉĉ
ĠO
res
Ġof
cu
Ġ$
ist
vice
sel
Ġonclick
ption
ts
','
none
add
70
que
google
ler
ĠĠĠĠĠĠĠĠĠĠĠĠĠĠ
over
ĠĠĠĠĠĠĠĠĠĠĠĠĠĠĠĠĠĠĠĠĠĠĠĠĠĠĠĠĠĠĠĠĠĠĠĠĠĠĠĠĠĠĠĠĠĠĠĠĠĠĠĠĠĠĠĠĠĠĠĠĠĠĠĠĠĠĠĠĠĠĠĠĠĠĠĠĠĠĠĠĠĠĠĠĠĠĠĠĠĠĠĠĠĠĠĠĠĠĠĠĠĠĠĠĠĠĠĠĠĠĠĠĠĠĠĠĠĠĠĠĠĠĠĠĠĠĠĠ
container
cial
45
mi
sli
true
0000
kit
che
Ġ/></
event
pan
ted
table
86
Ti
01
AAAA
ld
af
vo
Se
Ø¨
ran
ĠĠĠĠĠĠĠ
Ø³
ode
user
Im
47
ĠR
(){
ha
89
body
ink
23
info
org
track
;"
**
ja
ery
ban
Ġif
sa
align
ds
cre
lar
,.
ush
21
position
tw
300
Ag
49
ome
ka
ren
zy
pub
/?
window
fix
äº
count
upload
ĠĠĠĠĠĠĠĠĠĠĠĠĠĠĠĠĠ
code
webkit
par
Ġ:
ps
vel
fault
field
.</
ĠĠĠĠĠĠĠĠĠĠĠĠĠĠĠĠĠĠĠĠĠĠĠĠĠĠĠĠĠĠĠĠĠĠĠĠĠĠĠĠ
show
ID
;</
mes
ĠĠĠĠĠĠĠĠĠĠĠĠĠ
iz
car
77
rop
fr
try
");
09
Ġmenu
')
ets
æľ
}}
action
man
sele
="//
';
ith
clear
ject
pl
share
bile
ui
red
arent
ase
95
ls
center
Ñĥ
small
";
logo
Ġ!
;:
').
Ġpro
;&#
oli
fig
pper
Ġbackground
gr
48
ĠV
fin
prop
:"
03
tri
},{"
able
bu
Ġ5
ys
cm
31
ore
false
ble
read
Ø§ÙĨ
Event
Ġi
De
,#
Pro
ror
atch
entry
ns
cy
ild
null
Ġ4
ollow
åħ
hi
Ġ|
ance
mon
97
loat
68
ber
push
By
ĠU
Ġpo
int
000
leng
ud
ree
ĠĠĉ
ni
btn
Ùģ
tes
por
Ñĭ
log
")
Ð²
Te
length
-%
"/>
cor
ature
><!--
å¤
qui
Ġ3
Ġtr
ĠĠĠĠĠĠĠĠĠĠĠĠĠĠĠĠĠĠĠĠĠĠĠĠĠĠĠĠĠĠĠĠĠĠĠĠĠĠĠĠĠĠĠĠ
2015
bb
74
Ġĉĉĉĉĉĉĉĉĉĉ
hover
83
Ġst
)</
clo
hoto
ang
Ú©
ell
02
widget
;}
ĠK
more
':
wrap
Lo
ĠÎ
ap
Ġ10
Ġmargin
default
tv
group
ĠĠĠĠĠĠĠĠĠĠĠĠĠĠĠĠĠĠ
Ne
od
Ñı
Ġli
follow
uploads
sour
};
vis
price
source
ĉĉĉĉĉĉĉĉĉĉĉĉĉĉĉĉ
94
acebook
mit
":{"
FF
Ġfont
radi
tor
ten
ĠĠĉĉĉĉ
fil
gen
she
Ġfunction
fb
my
ĠØ§ÙĦ
Ġitemprop
key
];
Ġdocument
ĠÙħ
xs
max
ER
aa
81
ath
Ġ[
mobile
reg
itter
Link
cc
IN
mer
wrapper
ĠĉĠĉ
Ġdi
stom
off
blog
reen
Ð¼
import
asp
tool
;&
Ġfa
Ġ//
ĠIn
uk
TA
orm
").
="">
ments
login
åı
md
lock
lic
].
Ġar
value
ale
61
Ch
çĶ
Bo
spon
by
des
ĠĀ
å®
comp
word
tail
modu
Ø´
pop
'><
Ġro
ya
fore
tip
ĠĠĠĠĠĠĠĠĠĠĠ
200
inner
inter
146
ĠØ¨
important
%;
aser
ĠJ
gba
dl
mark
spe
Ð´
ki
cur
08
auto
card
96
ON
location
bal
72
á»
ÙĤ
ive
umn
&&(
He
sv
nofollow
shop
Ġis
ÑĮ
Ø¹
Ġl
rom
Type
ads
eb
Ø©
à¹
cess
fla
ãĥ¼
Ġ/><
<!--
va
Ġfalse
46
ily
Ġcolor
Ø§Ø±
uto
ories
lang
ee
select
mod
df
ĠRe
htm
Ã©
Image
href
adow
rame
Ġ">
auth
Ġicon
"},{"
getElement
iew
æĸ
Ä±
;,
Ġnone
arrow
Qu
chan
====
orig
ĠĠĠĠĠĠĠĠĠĠĠĠĠĠĠĠĠĠĠ
scription
files
59
assets
day
hol
ICAg
play
roll
Ar
forum
Le
BA
Ġse
country
Î±
parent
Ġj
error
tu
shadow
RE
Ġsc
ĠĠĠĠĠĠĠĠĠĠĠĠĠĠĠĠĠĠĠĠĠ
nail
ger
edi
gu
bl
TE
ven
check
54
rite
Ġĉĉĉĉĉĉĉĉĉĉĉ
lazy
Ġth
ach
gi
yn
lign
trans
Ġtext
56
za
76
ary
sport
Ġbe
ip
tra
Ġ&#
alle
wh
star
lobal
=\"
Com
["
ÃĤ
='/
DA
Ġthis
teaser
proto
pic
Ø§ÛĮ
Ġen
Ġ2016
Ġk
ded
----
su
79
Ġclear
banner
query
else
Ġrgba
gt
feature
place
Ġalign
hr
Nav
tics
file
:-
origin
003
064
olid
enu
drop
Ġme
dt
sol
ress
twitter
create
social
pr
ãģ®
cus
Î¿
holder
Ġsolid
photo
St
bg
thumbnail
ÑģÑĤ
Time
ĠĠĉĉ
Ġ_
},"
sco
lan
cl
YW
level
Page
facebook
tid
rol
âĢļ
perty
game
fir
pc
wa
Ġ7
db
float
Be
++
\\
jo
Ġ});
]=
ÏĦ
sion
Ġyour
Ġx
als
ĠĠĠĠĠĠĠĠĠĠĠĠĠĠĠĠĠĠĠĠĠĠ
['
ading
bout
hd
PS
Ġpadding
ix
side
custom
ĠĠĠĠĠĠĠĠĠĠĠĠĠĠĠ
ĠY
Ġan
test
Ġĉĉĉĉĉĉĉĉĉĉĉĉĉĉĉĉ
active
Ġun
Content
mp
ook
ousel
sup
sheet
42
ader
ä»
UR
rent
98
Î¹
73
Ð¹
US
column
slide
Ġ20
Ġleft
pb
class
78
igation
åĪ
dient
light
});
ill
open
ĠĠĠĠĠĠĠĠĠĠĠĠĠĠĠĠĠĠĠĠĠĠĠĠĠĠĠĠĠĠĠĠĠĠĠĠĠĠĠĠĠĠĠĠĠĠĠĠ
;"><
;:&
Ġwith
ĠÐ¿
ND
stylesheet
svg
respon
Â²
))
255
io
back
linear
Ġinput
gradient
Ġrole
List
à¥
Ġch
sti
let
Mo
noscript
aly
120
Tr
XX
63
utm
stat
AC
Ġ><
aspx
æĹ
module
ize
ye
51
views
Home
dis
åĽ
IG
çļ
oun
tions
detail
Ġjs
ec
ache
grid
To
ategory
vb
150
tooltip
ind
Ġ\
Sh
Click
author
ark
uch
Ð¾Ð²
rect
Ma
41
alog
Ġclearfix
ji
focus
****
Ø²
ÑĢÐ°
ube
move
Item
62
cont
58
ICAgICAg
43
submit
description
pos
ZW
Ġtrue
ãĥ³
002
NT
ÐµÐ½
039
radius
lt
wi
cb
']
Ġ8
mouse
cs
ther
Ġtop
ĠĠĠĠĠĠĠĠĠĠĠĠĠĠĠĠĠĠĠĠĠĠĠĠĠ
ae
Ġwindow
tin
rl
global
val
IE
AL
Top
Ġ==
land
self
ai
Di
sign
ĠÙĪ
her
)"
Text
path
figure
çļĦ
mb
original
start
flow
Ã¡
Ġaria
lace
hu
Ġ6
sites
brand
hp
'></
ling
;,&
åį
Ð·
moz
onent
zi
æĪ
Ġ9
250
cal
Ġyou
({
cf
===
The
ĠĉĉĠĉĉ
"]
mary
can
ä½
DE
Class
weight
CA
slider
Menu
live
Ġcom
Ġ100
Ġhttp
object
Tag
Ġfi
ator
ĠØ¯
story
amily
links
åĲ
last
medium
solute
jquery
93
ĠĠĠĠĠĠĠĠĠĠĠĠĠĠĠĠĠĠĠĠĠĠĠĠĠĠĠĠĠĠĠĠĠĠĠĠĠĠĠĠĠĠĠĠĠĠĠĠĠĠĠĠ
email
Box
YX
Ġ*
åĬ
son
Ġz
92
ĠÐ²
mode
first
.$
çī
>&
dropdown
Ø¬
202
city
TM
52
press
Ñĩ
53
TI
=".
91
/>
ØŃ
Ad
Ð¿
ung
ico
Ġurl
jax
Ġnew
tran
ko
inline
tel
flag
AD
scroll
dG
Ø§Ùħ
cli
lg
201605
ÐµÑĢ
ug
ĠĠĉĉĉ
service
Ú¯
ks
pass
Îµ
áº
Ġà¤
child
ĠÑģ
OR
å°
Î½
\/\/
Ġma
ins
Ġdo
common
promo
Ġ15
online
hide
king
:'
acity
tb
elp
Ġauto
HR
ync
ama
typeof
ams
ctl
àª
Ġreturn
Query
alytics
node
themes
panel
Ġdisplay
Of
![
Ð±
lot
base
ters
rela
Me
åŃ
ele
OS
opacity
MS
Node
call
Ã¼
ZX
Ġ||
homepage
('#
ggle
carousel
Ġtag
Ex
At
Ġhidden
ervice
._
ĠĠĠĠĠĠĠĠĠĠĠĠĠĠĠĠĠĠĠĠĠĠĠĠĠĠĠĠĠ
ast
fff
Ġblock
:\/\/
ssage
ari
180
Url
ĠĠĠĠĠĠĠĠĠĠĠĠĠĠĠĠĠĠĠĠĠĠĠĠĠĠ
space
ata
fk
txt
å¹
xx
Ġat
part
has
lex
tical
ray
ĠØª
LE
"/></
OD
à§
hot
AR
"),
ible
ZG
templa
igh
umber
family
Ã³
nel
quo
">&
modal
lit
/%
gram
="#"
now
lish
160
Ġnav
ĠĠĠĠĠĠĠĠĠĠĠĠĠĠĠĠĠĠĠĠĠĠĠĠĠĠĠĠĠĠĠĠĠĠĠĠĠĠĠĠĠĠĠĠĠĠĠĠĠĠĠĠĠĠĠĠĠĠĠĠĠĠĠĠĠĠĠĠĠĠĠĠĠĠĠĠĠĠĠĠĠĠĠĠĠĠĠĠĠĠĠĠĠĠĠĠĠĠĠĠĠĠĠĠĠĠĠĠĠĠĠĠĠĠĠĠĠĠĠĠĠĠĠĠĠĠĠĠĠĠĠĠĠĠĠĠĠĠĠĠĠĠĠĠĠĠĠĠĠĠĠĠĠĠĠĠĠĠĠĠĠĠĠĠĠĠĠĠĠĠĠĠĠĠĠĠĠĠĠĠĠĠĠĠĠĠĠĠĠĠĠĠĠĠĠĠĠĠĠĠĠĠĠĠĠĠĠĠĠĠĠĠĠĠĠĠĠĠĠĠĠĠĠĠĠĠĠĠĠĠĠĠĠĠĠĠĠĠĠĠĠĠĠĠĠĠĠĠĠĠĠĠĠĠĠĠ
sw
=!
prototype
Ġmedia
An
Po
uage
roid
Ġ12
sche
Ø®
ï¼Į
Ð³
å¥
+"
ana
toggle
movie
ME
Ġlo
éĢ
sor
ars
public
transform
fc
lity
Sta
åľ
rating
act
SS
Search
ina
feed
uni
Th
lb
Âł
ĠThe
full
vc
/"><
ek
Do
Ïģ
iness
ara
è¯
ial
OT
Ø§Øª
wo
store
Ġgoogle
ports
Col
Ġad
NC
zc
gories
Ġac
AB
hb
cam
usiness
target
lete
ormal
ä¹
News
screen
sive
Ġlang
400
eng
ular
icons
close
Ob
ĠNe
tern
////
spac
createElement
sto
old
Lj
Ġcell
Ġby
Ġex
={
reak
ics
Sc
white
On
No
headline
ien
ĠÐ½
mid
comment
Title
plus
ik
ave
cted
aW
71
terna
Ïĥ
bd
decor
mas
dif
Ġle
caption
peat
fav
videos
ado
ny
Ġproperty
Fi
bold
remove
ĠÐ¸
front
ust
ajax
TY
dle
Ġga
"Ā
Pri
lication
area
iste
ĠâĢ
sBy
Ġ,
rd
sy
mall
æĺ
jfk
Sub
è¿
Ùĥ
getElementsBy
deal
desk
's
reac
tach
View
comments
GE
Ac
navigation
ada
trib
before
cond
ä¼
cook
à´
Øµ
Ġtab
Ġĉĉĉĉĉĉĉĉĉĉĉĉĉ
ĉĉĉĉĉ
allery
download
Ġonmouse
Ġor
job
2014
eu
big
work
å¸
æī
ById
åĮ
sho
ste
Ġ--
ef
abled
PC
dia
":"","
ĠØ³
cture
map
reactid
mm
Ii
Ø§Ø³
Ġbtn
touch
fl
iews
à®
life
clearfix
getElementById
products
sen
Ù¾
ready
pen
mber
void
ning
ku
("#
ssion
sch
tact
rea
âĢŀ
110
ĠPro
dc
bc
äºº
,'
very
vr
Track
ces
AF
åº
ors
about
}#
tl
):
ÃŃ
TagName
shi
ãĥĪ
().
;-
lease
getElementsByTagName
ood
ep
BB
its
Ø·
tional
decoration
zh
Ġsize
sing
Â¬
rem
cache
Form
æĿ
Ġ16
Ġas
ĠDe
ib
Ġ14
parentNode
":[
ãĢģ
lugin
state
ange
large
è®
;}.
next
vid
uti
py
GF
Ġ&&
è¡
Ð°Ð½
defin
Mj
Ġfield
ish
320
ĠĠĠĠĠĠĠĠĠĠĠĠĠĠĠĠĠĠĠĠĠĠĠĠĠĠĠ
MA
uc
send
ties
Ñħ
popup
('.
========
repeat
ĠIE
Ġright
ĠSt
å·
ĠĠĠĠĠĠĠĠĠĠĠĠĠĠĠĠĠĠĠĠĠĠĠ
Ġall
);"
240
zon
bs
cha
soft
Ø±ÙĪ
MC
inte
MD
board
ãĤ¹
));
poli
Wid
OC
apple
Str
Mi
siz
element
ĠĠĠĠĠĠĠĠĠĠĠĠĠĠĠĠĠĠĠĠĠĠĠĠĠĠĠĠĠĠĠĠĠĠĠĠĠĠĠĠĠĠĠĠĠĠĠĠĠĠĠĠĠĠĠĠĠĠĠĠ
Â°
gaq
case
iframe
tation
##
ãģĦ
ey
ĠÚ©
ĠĉĉĉĠĉĉĉ
ua
OP
watch
Ġbox
enti
ÏĤ
jb
Ð¾ÑĢ
Ġsh
nr
archive
)};
Ð°Ð»
å¤§
redi
!=
dom
games
bol
ãģ«
sprite
resource
Code
ÐµÑĤ
cer
600
responsive
az
},{
defined
Ġview
from
"+
gg
Ġviews
Ġfloat
Ġposition
ä¸Ń
ç»
anim
æĸ°
::
lap
ĠÐ¾
MT
uy
Ġcenter
ï¼ģ
ea
Data
ware
mg
Î·
ital
alth
sb
change
Category
dio
stre
Ġdiv
ÑģÐº
Ġlink
desktop
æĹ¥
CB
Ø§Ø²
thod
articles
endif
attach
vers
Ġimg
æµ
(['
phone
analytics
æĬ
ooter
Ð°ÑĤ
hat
Up
tos
pages
>,
ãĤ¤
)(
cr
lection
=/
overlay
async
]>
Ġ$(
featured
gallery
password
Ġel
cent
Ġpost
;<
Un
Nz
free
å¼
Mz
':'
alt
usi
çĽ
sca
Ij
sert
...</
component
status
acy
tech
ffff
OM
Date
scope
ux
rs
Ġelse
"==
AS
AN
bro
cloud
114
Liste
ĠÙģ
wd
desc
sum
Ð¸ÑĤ
åĨ
éĩ
Ð¾Ð»
string
(!
AAAAAAAA
Ġ?
dm
Ġup
own
format
len
ĠÐº
Ġgoogletag
Ġfrom
ane
char
PE
edu
Ġ/*
--------
shtml
fn
OL
items
=%
UT
Ġul
irst
Listener
theme
def
ĠĠĠĠĠĠĠĠĠĠĠĠĠĠĠĠĠĠĠĠĠĠĠĠĠĠĠĠĠĠĠĠĠĠĠĠĠĠĠĠĠĠĠĠĠĠĠĠĠĠĠĠĠĠĠĠ
ï¼ļ
quest
heck
Coun
Header
TR
Nj
Î»
...
catalog
En
absolute
mun
ons
Product
Ġover
overflow
500
uid
oc
anner
categories
åĵ
"},"
ĉĉĉĉĉĉ
mic
layer
SB
Ġtabindex
rid
stra
insert
member
ple
ani
tribute
Ġver
ĠÃĲ
lin
Ø§Ø¯
itch
$(
Ġ*/
Ð¡
ä¸Ģ
cms
usaa
Er
âĢĻ
Ġhas
cookie
ç½
Ð½Ñĭ
(".
+'
||(
Ø±ÛĮ
Before
New
ÑĨ
thing
]-->
ĠĠĠĠĠĠĠĠĠĠĠĠĠĠĠĠĠĠĠĠĠĠĠĠĠĠĠĠĠĠĠĠĠ
iti
ĠDate
layout
ctor
way
ï½
tile
buy
ulti
scale
Ã¢
pf
bility
device
cale
Ġ},
ual
Ġĉĉĉĉĉĉĉĉĉĉĉĉĉĉ
zz
For
clu
gs
AQ
125
stri
(),
events
115
ãĥ¼ãĥ
region
IH
hor
checkbox
control
catch
ĠÃ
ĠÐ´
transition
channel
"}
mt
ãĤĭ
ÏĢ
ita
led
My
write
gre
lv
application
attr
Ð¾Ð´
uri
ero
ÑĪ
ES
Car
EventListener
gy
forma
ĠĠĉĉĉĉĉĉĉĉ
360
Ġ_.
Ġab
tax
vertical
indexOf
undefined
Ãĳ
Site
ĠCh
ister
lc
ĠCon
å±
ones
current
ãĤĴ
DI
åĩ
Ġend
sec
only
ÐµÐ»
éĽ
plugin
heading
replace
bm
ãģĹ
ĠĠĠĠĉ
bed
:</
!==
short
usic
ĠZ
Ð¾Ð¼
ĠMo
ĠĉĉĉĉĠĉĉĉĉ
insertBefore
hc
Ð¶
late
åĽ½
Ġco
ĠĠĠĠĠĠĠĠĠĠĠĠĠĠĠĠĠĠĠĠĠĠĠĠĠĠĠĠĠĠ
Ġpage
ãĥĥ
primary
template
LW
ĠSe
air
tags
tc
æ¸
Fe
Ġnull
ookie
è½
ĠAr
sd
alterna
hoo
schema
à°
relative
Ġinset
CQ
tick
ĠÙĨ
Ġì
140
ript
ao
Ġmore
è´
/_
num
campa
tok
pany
sg
tal
Ġda
000000
ternal
spacing
sparent
mat
DQ
ĉĉĉĉĉĉĉĉĉĉĉĉĉĉĉĉĉĉĉĉĉĉĉĉĉĉĉĉĉĉĉĉ
bookmark
Ïħ
ĠÄ
SI
selected
cz
tit
tings
sf
bf
ash
with
ä¿
Ġplace
Ġmo
gh
Ġ11
\",
]:
Ġline
second
vali
help
='_
filter
acute
oi
split
wn
rest
hand
Ġaction
ãģ§
campaign
Object
æķ
break
Ġdate
ited
ãģª
flex
144
BE
GV
AE
Ver
world
styles
ĠĠĉĉĉĉĉ
ous
radio
ãģĮ
;(
ãģŁ
api
Ġchar
las
thumbs
profile
App
dn
Ã¤
ÙĪØ±
ear
-_
Ġsub
you
Ġthat
hl
ĠØ¹
Ġng
URL
);">
(['_
PG
jsp
hone
est
Ġwe
tiv
TML
à¸Ļ
ĠÙĩ
ĠCom
letter
Ġu
topic
Ð¸Ð½
)">
Ġ30
Ġĉĉĉĉĉĉĉĉĉĉĉĉĉĉĉ
;"></
pd
middle
ager
!</
Img
Google
lapse
{{
":"/
sys
googletag
Îº
like
yo
Ġare
wer
Is
ÅŁ
atar
âĢĿ
mu
ãĢĤ
ãģ¦
match
ank
ica
indi
à¤¾
cid
details
TV
Ra
tracking
"/><
core
account
å¾
client
Ġ13
CC
sidebar
Ð°ÑĢ
Ð¸Ñı
picture
=&
So
La
ĠØ´
number
à¸²
blue
CH
cover
Ġcat
Web
Container
ping
pu
orn
normal
Ġso
EN
options
arg
ÙĪØ¯
find
zone
xy
135
DB
version
review
Child
');"
ings
112
Ñİ
********
ĠĠĠĠĠĠĠĠĠĠĠĠĠĠĠĠĠĠĠĠĠĠĠĠĠĠĠĠĠĠĠĠĠĠĠĠĠ
=[
Ġ50
cast
pay
>(
Icon
kJ
Ġxml
sports
116
gpt
Service
archives
cia
message
hy
Ġcur
alternate
++)
uments
043
Ġvalign
ĠTh
Ġvis
âĢľ
fer
(/
fs
Ġscreen
tica
Script
Ġ)
éĻ
Left
çº
ens
],"
bab
AT
ura
Ġte
Ð¾ÑĤ
ext
lip
equi
ason
ustom
intl
æ°
Ġ"><
Ĥ¬
ĠĉĠĠĠ
tt
special
UM
è§
dot
Ð¾Ð½
submenu
105
Al
hero
Ġ<!--[
220
=""><
Ġne
services
kt
ZT
Width
IS
ÑĢÐµ
Ġ24
Ġmin
dig
izes
%"
tate
care
lis
AP
218
\":
ques
addEventListener
TD
bet
ç§
after
Ġrela
Ġmethod
ÐŁ
å¿
123
Wra
Ġta
252
UA
ĠØ¯Ø±
Lay
ãĤ¢
both
èµ
business
Video
lh
complete
Ã§
Ġnot
ç¾
ç½ĳ
dit
å½
fu
ky
gger
Ġ{"
ump
trackEvent
copy
éģ
del
]</
130
tm
Info
Or
IF
ala
/'
best
ibility
porn
placeholder
Pj
ÙĬØ©
ãĤ¯
modules
Main
çİ
ĠTo
bra
kin
scrollbar
dr
goo
rial
Ġtd
ĠÐ½Ð°
win
Ø³Øª
config
ãĢĲ
lert
Ġit
Attribute
ĠÐ¼
ori
assword
Ġitemscope
ãĢĳ
umns
house
Sele
vd
ĠÙĦ
Ġitemtype
Down
ĠOn
Email
requi
Button
Ġpri
ally
oney
ox
VE
)},
black
Ġ!=
fan
rity
HO
201604
bad
225
å¹´
ãģ¨
Ġus
flo
æŃ
ÙĨØ¯
mx
crop
preview
Ho
2013
145
PSJ
Ġvideo
lia
sale
CE
sr
amer
Ġpar
,!
="-
disabled
ord
Ca
leg
SE
adob
aded
aber
)?
]);
9999
abel
Ġhtml
\",\"
Ã¶
Out
signin
rand
cell
ids
lid
inet
ĠAn
ats
pix
nl
ses
resources
lat
FFFF
String
scape
ĠĠĠĉ
BD
plugins
Ġsizes
ĠĠĠĠĠĠĠĠĠĠĠĠĠĠĠĠĠĠĠĠĠĠĠĠĠĠĠĠĠĠĠĠĠĠĠĠĠĠĠĠĠĠĠĠĠĠĠĠĠĠĠĠĠĠĠĠĠĠĠĠĠĠĠĠĠĠĠĠĠĠĠĠĠĠĠĠĠĠĠĠĠĠĠĠĠĠĠĠĠĠĠĠĠĠĠĠ
Ø£
Sign
cta
Ġplaceholder
ĠjQuery
ved
0627
ano
ges
æĶ
high
Ġper
Ro
Î¯
thread
onom
800
adobes
adobesusi
062
Timeout
yu
gener
xml
ponent
Ø§Ø¨
Ġtran
æĢ
cen
BR
BC
mn
:[
fd
Au
ÐºÐ°
éĹ
æĥ
ated
Ġget
Li
person
ĠĠĠĠĠĠĠĠĠĠĠĠĠĠĠĠĠĠĠĠĠĠĠĠĠĠĠĠĠĠĠ
Pop
vacy
Ġcan
tina
context
peg
cart
640
ãĥ»
ju
0022
ather
ied
([
ÑĦ
skin
rati
è¦
fy
IT
æİ
result
contact
rss
æ³
All
ward
cp
tas
170
prod
Ig
cel
ICAgICAgICAgICAg
åĵģ
Co
sia
?</
mega
åĳ
Ġout
HJ
=_.
ç«
ker
Value
android
Medi
jQuery
Sli
'+
access
rer
Ġcategory
ene
yes
sur
ãĥª
Ġna
à¸Ń
rowse
à¸£
çĻ
GB
Price
loader
los
Ġabsolute
andard
ade
append
NE
Ġsp
tele
Ġfe
ãĥ©
olu
pref
Ġ25
Ġà¦
Ġ×
à¦¾
"===
ĠLo
lk
kwid
Î¼
ãĥ«
113
film
sid
ĠLe
onload
pin
HTML
Ġspan
ah
kr
107
Block
update
circ
gbq
Ġsite
TION
NA
åİ
="(
une
graph
Par
sed
128
model
Ġadd
ĠØ±
tabs
Ġpre
LA
lable
Ġset
hen
Ġlast
NS
mart
score
User
ï½Ĺ
cle
ality
Ġ<![
usion
room
,&
å¯
\'
formation
101
CT
Ġmax
çľ
Ġcharset
ople
mini
navbar
èĢ
portal
"],
1000
Ġwp
ĠBe
ĠÏĦ
Î¬
ĠØ®
Vy
-_-
WF
ãģĻ
stamp
equiv
"],"
visible
HP
pol
gan
pping
æł
El
din
IP
Man
Ġ()
Sp
plo
mc
speed
under
ĠĉĉĉĉĉĉĠĉĉĉĉĉĉ
offset
Ġ]
ĠX
Ø§Ùĩ
Ġlist
tre
700
xhr
iture
bbs
aut
æľĪ
uro
?"
menuitem
ĠĉĉĉĉĉĠĉĉĉĉĉ
Res
fit
ork
ĠØ¬
tim
":["
âĤ¬
ask
Cookie
ctr
rag
Ġcellspacing
ÛĮØ¯
Ġonly
ĠĠĠĠĠĉ
117
market
210
iP
Ġfirst
999
ship
};_.
jpeg
Key
pid
war
ross
Div
cursor
rate
bund
dark
119
Ð¾Ð³
Label
é¡
gaz
gov
Ġoff
][
Images
iss
ĠÂ
ãģ¾
fri
é¢
ĉĉĉĉĉĉĉ
fp
Ġinline
Cat
118
æĻ
wser
Banner
Ð¸Ðµ
fter
frame
ä¸Ĭ
');">
ich
||"
vn
kes
ãĢĮ
witter
çĶŁ
Login
\">
not
single
////////
van
Math
Ġlabel
XXXX
____
Ġ$('#
init
bt
ĠÙ¾
fly
Ġcellpadding
lus
loading
tore
(_.
wel
Error
exports
æ±
Ġhide
Ø§Ø³Øª
IL
357
/#
nR
çĶ¨
language
host
arguments
xl
104
popular
Nw
ãĢį
."
Ġ></
attachment
bank
direct
ias
ĠAc
Ġrelative
)&#
mF
photos
ffe
PR
Ġshow
Read
tis
GU
team
Ġxmlns
posts
wy
âĢĮ
3333
commen
FC
Ðļ
avatar
gos
nh
protocol
ĠØ¢
children
ĠMan
=""></
ower
ula
ony
å¥³
JS
Fo
ĠMa
034
gam
outube
wg
ĠĉĉĉĉĉĉĉĉĠĉĉĉĉĉĉĉĉĉ
ĠSh
ev
Ð¾Ñģ
animation
èĥ
Article
çĲ
produ
ick
à¶
&&!
ç¾İ
website
Inter
|</
;(+
Ġ18
Ġlanguage
oom
ĠĠĠĠĠĠĠĠĠĠĠĠĠĠĠĠĠĠĠĠĠĠĠĠĠĠĠĠĠĠĠĠĠĠĠĠĠĠĠĠĠĠĠĠĠ
stock
Mar
serif
001
('/
cloudfront
domain
æ¬
æĭ
Ġ};
LH
Ġsmall
Pre
æĽ
æīĭ
hite
favicon
è£
health
ĠAd
Ġapp
Ġim
Ġ22
:{
Ġque
anel
:!
network
interest
108
Request
sim
collapse
ire
HV
design
velo
IM
Layer
æŀ
pk
)();
json
è¨
264
ĠHe
hn
ian
err
Ð¸Ð»
come
ãģ¯
=(
)[
Ġbutton
Ġman
ĠonClick
à¹Ģ
ĠEnd
Action
Share
ife
username
ÏĮ
cho
ĠĠĠĠĠĠĠĠĠĠĠĠĠĠĠĠĠĠĠĠĠĠĠĠĠĠĠĠĠĠĠĠĠĠĠĠĠĠĠĠĠ
agen
ffi
ami
lips
Ġonmouseover
roup
movies
notic
Footer
trigger
travel
uY
148
sz
Index
amazon
support
æ´
munity
presen
Ġĉĉĉĉĉĉĉĉĉĉĉĉĉĉĉĉĉĉĉĉĉĉĉĉ
ouse
pixel
ST
stop
rank
Ġlazy
uld
collection
",[
å®¶
ç´
lib
Ġhome
åħ¨
Tab
music
Mobile
{-
publish
Ð½Ð¾
player
BQ
Ġpe
orld
gar
Ġti
Set
Show
resize
ini
fill
,Ā
arti
ĠÑĤ
æľī
ness
onomy
noti
CM
pty
ĠĠĉĉĉĉĉĉ
ìĿ
Eng
other
rt
lack
AAAAAA
ves
stream
tro
digital
Count
333
tlet
gp
euro
Ġoverflow
OW
AM
Ġnews
Ġdatetime
ration
less
cket
ÙĪÙĨ
Ġau
ĠFor
define
floor
tend
Shop
Start
older
secondary
Log
illi
Ġ@
ving
ĠĠĠĠĠĠĠĠĠĠĠĠĠĠĠĠĠĠĠĠĠĠĠĠĠĠĠĠĠĠĠĠĠĠĠ
XR
wide
Over
ãģ£
0644
ZD
times
Bar
CL
234
à·
Ġour
$('#
Ùī
tex
BF
{&
taxonomy
shed
Ø¶
Ãł
ener
Ġsrcset
ÛĮÙĨ
WV
Ġdel
ants
Ġcor
dep
zd
uration
fun
/'>
à¸ģ
TYPE
ÐĴ
And
Right
Pub
Ġuse
getTime
women
é¦
ä¸į
EB
erson
ĠĉĉĠĉ
State
ino
gor
Get
,-
åŃĲ
dows
ĠEx
ners
resh
templates
CR
à¤°
wb
Ġevent
=_
leri
":"\
BL
>.
å°ı
Add
Reg
168
ĠĠĠĠĠĠĠĠĠĠĠĠĠĠĠĠĠĠĠĠĠĠĠĠĠĠĠĠĠĠĠĠĠĠĠĠĠĠĠĠĠĠĠĠĠĠĠĠĠĠĠĠĠĠĠĠĠĠĠĠĠĠĠĠĠĠĠĠĠĠĠĠĠĠĠĠĠĠĠĠĠĠĠĠĠĠĠĠĠĠĠĠĠĠĠĠĠĠĠĠĠĠĠĠĠĠĠĠĠĠĠĠĠĠĠĠĠĠĠĠĠĠĠĠĠĠĠĠĠĠĠĠĠĠĠĠĠĠĠĠĠĠĠĠĠĠĠĠĠĠĠĠĠĠĠĠĠĠĠĠĠĠĠĠĠĠĠĠĠĠĠĠĠĠĠĠĠĠĠĠĠĠĠĠĠĠĠĠĠĠĠĠĠĠĠĠĠĠĠĠĠĠĠĠĠĠĠĠĠĠĠĠĠĠĠĠĠĠĠĠĠĠĠĠĠĠĠĠĠĠĠĠĠĠĠĠĠĠĠĠĠĠĠĠĠĠĠĠĠĠĠĠĠĠĠĠĠĠĠĠĠĠĠĠĠĠĠĠĠĠĠĠĠĠĠĠĠĠĠĠĠĠĠĠĠĠĠĠĠĠĠĠĠĠĠĠĠĠĠĠĠĠĠĠĠĠĠĠĠĠĠĠĠĠĠĠĠĠĠĠĠĠĠĠĠĠĠĠĠĠĠĠĠĠĠĠĠĠĠĠĠĠĠĠĠĠĠĠĠĠĠĠĠĠĠĠĠĠĠĠĠĠĠĠĠĠĠĠĠĠĠĠĠĠĠĠĠĠĠĠĠĠĠĠĠĠĠĠĠĠĠĠĠĠĠĠĠĠĠĠĠĠĠĠĠĠĠĠĠĠĠĠĠĠĠĠĠĠĠĠĠĠĠĠĠĠĠĠĠĠĠĠĠĠĠĠĠĠĠĠĠĠĠĠĠĠĠĠĠĠĠĠĠĠĠĠĠĠĠĠĠĠĠĠĠĠĠĠĠĠĠĠĠĠĠĠĠĠĠĠĠĠĠĠĠĠĠĠĠĠĠĠĠĠĠĠĠĠĠĠĠĠĠĠĠĠĠĠĠĠĠĠ
stagram
fac
Ġhreflang
ney
Default
ï½Ĺï½Ĺ
ond
ãģĭ
Ġshare
230
280
Ġ17
163
Ð°Ñı
ãĤī
words
YS
inclu
XM
gir
ful
pes
fusion
Ð½Ð¸
Hw
Ġnode
éĥ
ird
127
Ġbottom
keting
à¹Ī
vw
ĠÐ±
spot
anti
Place
HE
More
mate
æľº
multi
åł
åķ
6666
Height
bin
WU
daily
quare
sizing
ile
han
Ġpr
scribe
ĠGoogle
310
åī
lyph
pubads
sole
cos
ource
company
Ġë
ssl
utf
ĠĠĠĠĠĠĠĠĠĠĠĠĠĠĠĠĠĠĠĠĠĠĠĠĠĠĠĠĠĠĠĠĠĠĠĠĠĠĠĠĠĠĠĠĠĠĠĠĠĠĠĠĠĠĠĠĠĠĠĠĠĠĠĠĠĠĠĠ
SP
Go
ratio
kar
stance
)),
Ġhave
bur
Ser
mv
"><!--
gray
We
rency
DATA
èĩ
èģ
mbol
series
Color
unit
æľ¬
pane
ĠEND
ier
ÙĪÙĦ
Ð¾Ð¹
Size
nes
Ġem
Ġemail
ĠÐ¿ÑĢ
253
165
ĠÐ·
());
Post
728
verti
Ġbg
dation
Ġpor
local
;}#
]||
/-
cmd
Ðŀ
à¦°
!!
ED
acion
foto
ç¬
gc
CD
badge
Off
é«
program
ĠAll
bri
å¦
190
ost
admin
)}),
ÅĤ
youtube
233
til
109
FR
Per
aw
nect
Ø§Ùģ
Array
à¥ĩ
gid
ĠĠĠĉĉ
bind
Jm
arge
Ġbold
lose
ii
aside
CO
Tra
124
175
ĠMay
375
Var
wc
ries
=="
stu
dir
Â»
àµ
Ø±Ø¯
Ð»Ð°
ÐºÐ¸
å¤©
æ²
timestamp
browse
addClass
LI
ues
igator
cut
ķãĤ
spor
via
Lm
éĿ
PA
>-->
visibility
Ġ===
"Ā,Ā
door
summary
ĠSo
cker
æĸĩ
hY
pointer
Ġsearch
even
Slot
Bl
éĺ
ĠĉĠ
ben
à¥į
Ġ$("#
GA
106
ĠUn
350
uo
ift
167
Ni
UE
1605
tainment
ned
="#"><
ĠØ§ÙĦÙħ
ages
102
logy
Ġ19
lash
ãĤ¿
&&"
cion
ãĤĬ
features
éĸ
à«
lag
ora
CF
pics
pli
tren
à¯
className
angle
Ġ300
grey
CDATA
each
Î¿Ïħ
<![
ax
è¡Į
Ġwill
çĤ
curity
Ġfill
gd
404
quick
pack
Open
latest
jobs
270
tbody
gtm
ĠĠĠĠĠĠĠĠĠĠĠĠĠĠĠĠĠĠĠĠĠĠĠĠĠĠĠĠĠĠĠĠĠĠĠĠĠĠ
May
haber
åħ¬
åĭ
126
ĠĉĠĉĠĉĠĉ
ĠĉĉĠĉĉĉ
çķ
================
é£
æĦ
merce
ĠNews
ï¼Ī
}],
super
æ¸¸
kan
Message
">[
stor
rome
ffffff
à¸ĩ
offer
wM
dk
point
,_.
ZS
ify
)<
ãĥ³ãĥ
chor
×Ļ
Ġimage
">(
038
Rl
UL
fm
Ġsection
circle
standard
mag
Des
ĠĠĠĠĠĠĠĠĠĠĠĠĠĠĠĠĠĠĠĠĠĠĠĠĠĠĠĠĠĠĠĠĠĠ
Style
uble
serial
AAE
zM
Fg
154
lers
stats
/Ā
sex
')[
tools
Ow
CI
tels
="#">
Ã³n
('<
jd
ï¼ī
istory
ball
wed
urs
Navigation
="+
ĠAnd
139
ĠMe
vron
365
ider
Bu
ĠApp
prev
bk
hel
152
Ø±Ø§ÙĨ
flash
Ñī
185
raft
server
Ð¾Ð±
<\/
Ġtrack
Zm
137
ĠØ¨Ùĩ
Oy
figcaption
Zy
pers
æľĢ
opin
EA
åŁ
ĠØŃ
lug
HD
lp
dp
vil
":[{"
uss
fx
join
>\
ents
ras
components
JT
129
ints
bit
vir
ĠCo
ĠTr
Ġ'/
ĠÄĳ
master
*/
PH
147
åĪĨ
]"
AAA
biz
Ġabout
åĩº
report
Î³
155
better
redirect
ä¾
register
111
wdG
sort
sl
dule
rec
ING
tball
Ø§Ø¹
UK
Property
OG
here
ãĢĢ
ndar
lyphicon
Check
pha
ĠNew
../
ĠĠĠĠĠĠĠĠĠĠĠĠĠĠĠĠĠĠĠĠĠĠĠĠĠĠĠĠĠĠĠĠĠĠĠĠĠĠĠĠĠĠĠĠĠĠĠĠĠ
buttons
Case
mac
ĠĠĠĠĠĠĠĠĠĠĠĠĠĠĠĠĠĠĠĠĠĠĠĠĠĠĠĠĠĠĠĠĠĠĠĠĠĠĠ
sn
spa
ric
Ġsu
your
zt
ĠMore
cks
260
205
presentation
WQ
Ġ--></
PT
156
Photo
izont
Ġease
DF
è¶
ä¼ļ
Group
134
unt
apply
green
ï¼Ł
asset
çīĪ
lipsis
vY
132
vy
exp
ĠĉĉĠĠĠ
xz
mV
fra
Ġqu
flu
çĶ»
ĠDi
áĥ
Ġet
Ġgo
']);
Ny
ÐµÐ¼
à¸¡
club
138
mium
8217
lG
conom
tems
ron
Ġeven
194
xp
ris
weather
Ġarticle
ols
136
kon
='+
à§ĩ
izontal
ĠYou
IA
tur
ped
cas
103
Ġwidget
formance
Ðł
ãĥ¬
isode
external
Ø°
bj
odd
vs
ãĥŃ
"},
dem
ä¸ĭ
total
],[
Oi
lm
DD
make
Hand
ĠVideo
285
opt
LC
era
zen
è¾
deg
Cont
ĠNo
msg
allback
RT
Ġ200
Jo
Ġ...
Media
ice
slot
;/
####
235
itial
ÙĬÙĨ
ĠĉĉĉĠĉĉĉĉ
handle
305
æµ·
+=
çĶµ
?(
non
itor
rosoft
Ġtime
$("#
zu
chevron
Ass
esti
selector
ague
ream
offi
adv
inset
symbol
Jy
system
cio
bn
Ġopacity
twe
Ġproduct
Body
real
à¸±
Ġrow
247
vin
subnav
ÐĲ
177
ical
Ġ[];
switch
ĠTe
480
plat
zo
Load
ÙĦÛĮ
822
à§į
Wrapper
/.
cla
landing
orite
900
Ġ);
ØĮ
Path
inst
Ġform
ifi
ise
Ġtra
mk
scripts
195
157
med
ãĤ«
Download
embed
},{}],
Ãª
QE
lished
159
run
counter
goods
ili
DOC
Ġtransparent
das
Ð¸Ð¹
bil
tablet
actions
Ġ40
Ġsli
namic
transparent
gl
èĤ
arn
ĠØ§ÛĮ
Ġtrans
Ġmain
169
HRpb
ĠOnline
à¹ī
204
today
Ġlt
OK
Head
alert
pad
ged
ald
à¹Ģà¸
Ġonline
baby
Ġstart
SA
china
Ð¾Ðº
Äĥ
Ġtypeof
192
Sa
editor
ÎŃ
cap
apps
')"
Pa
ĠÙĤ
brands
ĠĠĠĠĉĉ
Bg
Ġformat
Ġvisible
Øº
delay
oman
Ġpointer
Ġpara
quote
ence
EE
×ķ
yahoo
week
ÐĿ
acon
Ġser
%</
)|
ubble
Homepage
reci
ater
gbqf
kb
">&#
boot
174
173
Ø§ÙĪ
ãĤ°
qa
gest
æ¯
uh
square
fade
Ġtry
265
rection
Ġbody
399
dos
ãĤ³
Vis
agement
As
åŃ¦
stack
uper
hs
188
MO
XJ
å£
UN
ÉĻ
ãĥĹ
DOCTYPE
Ð°Ðº
ĠIs
hk
æĺ¯
removeClass
pm
Logo
--><
SD
FA
äºĭ
337
Â±
HA
related
forums
ĠĠĠĠĠĠĠĠĠĠĠĠĠĠĠĠĠĠĠĠĠĠĠĠĠĠĠĠĠĠĠĠĠĠĠĠĠĠĠĠĠĠĠĠĠĠĠ
ches
Pg
signup
tik
zer
ĠØ¨Ø±
FB
upport
bp
222
ĠØ£
cher
Ġone
é«ĺ
Ð¸Ð¸
vision
'),
san
340
ãģĬ
vcHRpb
ÑĢÑĥ
IiB
èª
ugh
contents
fication
åľ¨
Ġonmouseout
ience
"}}
Password
Ġnormal
ĠTi
Ġge
237
Can
Ġcheck
money
qi
Ã«
ĠLink
national
224
mos
lie
Spe
face
ãĤ·
fron
199
----------------
ç¬¬
vas
ĠĠĠĠĠĠĠĠĠĉ
dam
gress
trending
Î®
Ġà¸
133
Ðľ
ona
hash
stars
Option
edge
credit
Pi
pagin
UI
143
Carousel
]).
guide
Ġ2015
ãĤ¸
çŁ
236
ham
yi
ames
Ug
dash
rad
stru
itok
Ġ--><
KC
opy
parse
You
ĠPri
ĠMar
ãģĵ
ÐµÐ¹
slideshow
ÐµÐ´
WS
Ġmobile
nowrap
èĥ½
locale
deli
etch
Java
åĬ¨
jx
Ð¾ÑģÑĤ
zed
kom
alf
å¸Ĥ
Part
rgba
util
éĩĳ
]+
plan
raquo
Ġcolumns
à¦¿
Nl
rk
ĠPC
cade
720
tai
params
Ġund
Æ°
ros
lz
;'>
KT
Detail
ĠCol
keywords
.","
lnk
158
Ïī
ç¥
cept
vg
betterT
UTF
ĠTV
2000
ilable
Ä±n
yan
="&
='{"
cmV
har
Ġ{{
å¤ļ
tie
ãĥ¡
Ð»Ñı
xi
nu
personal
lw
Ġpull
164
ategories
187
ĠĀ"Ā
Ġ%
ente
sky
Lz
dian
rance
chen
Ġlevel
éŁ
lr
moji
Ã´
356
ĠHome
Ġuser
suc
ria
ÄŁ
ØªØ±
biB
åıĳ
tube
);}
153
Ġ$('.
dialog
299
ĠÑĥ
âĢ¦
])
viewport
rel
])}
ä¸ļ
GR
ĠRo
Auto
Ġcode
die
ç¤
Section
Ġ28
ĠĀ"Ā"Ā,Ā
stories
Fwww
Ġdes
Area
ĠService
166
term
bel
122
vest
184
chi
åľ°
ç®
EG
HT
)};_.
èĪ
229
ĠĉĉĉĉĉĉĉĠĉĉĉĉĉĉĉ
åĬł
Ġ})();
Int
ä½ľ
Yz
Pr
ios
bul
èĬ
èī
Ġàª
')">
ĠĉĉĉĉĉĉĉĉĠĉĉĉĉĉĉĉĉĉĠĉĉĉĉĉĉĉĉĠĉĉĉĉĉĉĉĉĉ
\":\"
Ġago
platform
SU
%}.
noindex
docs
require
fixed
kw
ĠSta
capt
flyout
Å¾
Btn
à¸¢
Ġbro
bundles
Dis
Enter
Ø±ÙĬ
ÚĨ
ĠĠĠĠĠĠĠĠĠĠĠĠĠĠĠĠĠĠĠĠĠĠĠĠĠĠĠĠĠĠĠĠĠĠĠĠĠĠĠĠĠĠĠĠĠĠĠĠĠĠĠĠĠ
intern
Ġ+=
à¸µ
198
256
round
149
ij
ãĥŀ
pw
cg
ÙĪÙħ
instagram
"!=
00000
xhtml
Fil
Ġpop
176
ãĤĵ
outer
settings
Please
()}
obj
dra
WE
AK
IR
306
PL
244
AAAAAAAAAAAAAAAA
quality
topics
auty
Ġwhite
xxx
($
ense
fut
=''
Ġcolspan
Ã±
pg
arrowim
Custom
Ġ"/
213
Star
275
Doc
Mode
Ä°
Ġcar
loaded
ĠDo
207
illa
AV
bre
ĠØ§Ø²
dri
jia
translate
Ð¢
fw
iddle
304
ãĤĤ
coup
è½¦
Îĳ
Facebook
ÏĥÏĦ
identi
298
lik
strap
178
choo
people
Contact
EC
ĠĉĉĠ
666
LD
Ġ'',
Ġcoun
nc
ÐµÐº
marketing
pull
196
random
horizontal
ÐĶ
nor
Å¡
201607
ĠQ
201
:"\
215
=Ā
ÐµÑģ
ĠÙħÙĨ
commerce
Ġdir
ĠĠĠĠĠĠĠĠĠĠĠĠĠĠĠĠĠĠĠĠĠĠĠĠĠĠĠĠĠĠĠĠĠĠĠĠĠĠĠĠĠĠ
Cur
Ġfooter
kh
dition
279
magaz
571
ĠFe
Ð»Ð¸
ov
appendChild
EF
yreg
çĪ
à¥Ģ
NO
Ġstat
Gu
Ġtc
pinterest
ĠĠĉĉĉĉĉĉĉ
245
Ġ21
REUM
246
ĠFacebook
227
DQo
chat
bor
Ø«
Ori
codeUR
":{
Play
cky
)){
ÄĻ
reate
omen
elve
manga
navigator
spacer
208
295
ĠYour
ados
ãĤµ
Ta
åħ¥
scr
two
)&&
uf
unce
rols
ä¿¡
ĠĉĉĉĉĠĉĉĉĉĉ
MM
189
à¸¥
BY
Ġframe
lights
186
æĪĳ
shion
expan
èĭ
à¸§
296
checked
CQkJ
)}}
åķĨ
281
Ġfo
ours
root
zm
ĠWe
æĸ¹
season
Ā=Ā
éħ
)||
Ø¢
Mon
Ġrequi
/*
Ġop
!"
Qg
Ba
rm
pY
tan
ĠÐ³
ffect
aring
×ķ×
290
duration
loc
æĥħ
privacy
ĠTra
ln
Ġfree
rence
ĠĉĠĉĉ
urniture
dz
jc
")[
Ġbo
lazyload
tY
çĲĨ
partner
ays
æģ
ario
ÙĦÙħ
lGOD
Az
disc
æĮ
Links
long
((
Ci
dern
LL
Ð°Ð¼
537
subscribe
ĠIm
ati
äºĨ
rev
238
Watch
substring
Ġlinear
%,
Ãº
currency
Î¹Îº
288
TH
èĩª
;_.
Ġ'';
wan
Ġany
ador
à¤¿
Field
Bot
ida
)&&(
239
214
Ā/Ā
obs
TS
lio
tage
serv
most
football
307
ley
tivity
Ġrgb
ĠĠĠĠĠĠĠĠĠĠĠĠĠĠĠĠĠĠĠĠĠĠĠĠĠĠĠĠĠĠĠĠĠĠĠĠĠĠĠĠĠĠĠĠĠĠĠĠĠĠĠĠĠĠĠĠĠ
åĢ
ĠThis
228
ç¨
kz
à¸Ķ
property
çŃ
bum
ĠĠĠĠĠĠĠĠĠĠĠĠĠĠĠĠĠĠĠĠĠĠĠĠĠĠĠĠĠĠĠĠĠĠĠĠĠĠĠĠĠĠĠ
vider
Na
äº§
deals
dynamic
success
Aw
gun
Î´
248
qq
lj
Ã£
cour
<!
1999
ÑģÑĤÐ²
åģ
VS
IGN
+%
206
Store
WA
ÛĮØ±
lgb
ess
ĠĠĠĠĠĠĠĠĠĠĠĠĠĠĠĠĠĠĠĠĠĠĠĠĠĠĠĠĠĠĠĠĠĠĠĠĠĠĠĠĠĠĠĠĠĠĠĠĠĠĠĠĠĠĠĠĠĠĠĠĠĠĠĠĠĠĠĠĠĠĠĠĠĠĠĠ
ĠÐ°
uz
2012
ãģı
Ġmy
rub
FFFFFF
Ġinstance
depth
ola
×Ļ×
ĠUp
:.
olution
){.
291
gf
209
ken
çµ
leaf
=\
uml
eacute
ĠAl
arts
Rh
ĠĠĠĠĠĠĠĠĉ
stry
temp
Ġfil
newsletter
Ter
vL
ĠEn
ystem
179
Feature
connect
Â·
ICom
bubble
ÙĬØ¯
Il
edit
Ġfl
XB
Ð°Ð¹
Ø±Ø¨
separ
entertainment
pal
MP
Free
å®ī
brary
257
IComponent
cri
codeURIComponent
aol
food
community
asy
216
Ġreg
Ġcurrent
far
uol
XN
foot
Ø¨Ø±
nds
à±
stan
226
Ġ90
customer
tiny
197
å·¥
wards
ĠĠĠĠĠĠĠĠĠĠĠĠĠĉ
åĥ
If
Oj
395
imgs
kp
Jl
è·
Ġra
Ġ"";
>');
ãģį
users
shopping
apis
='//
Ġder
405
mr
ulture
navi
Widget
aws
Ġheader
aci
Sw
scho
Ġwas
good
à¤¨
Mod
ĠâĢĵ
includes
573
ante
Ġcorrespon
450
çĦ
lgbx
Ge
ttp
lGODlh
Number
counts
Agent
æĽ´
254
åĲĪ
Ġfin
ĠCar
ĠÚ¯
BAE
may
%">
rotate
249
ĠUS
Ġĉĉĉĉĉĉĉĉĉĉĉĉĉĉĉĉĉ
MB
267
NG
(-
wt
subtitle
XY
Ġ"",
met
blogs
íķ
Em
HQ
argeting
fon
çĤ¹
refer
ĠÙĬ
empla
0645
sans
books
It
Tracker
param
fast
response
RA
spi
Ġlar
Ġsa
cnt
380
ĠÐ¡
à¸´
10000
}"
ults
Holder
fonts
Zh
pur
NREUM
Ġstatus
Ġcorresponding
ĠWeb
gal
'});
inc
cessories
india
HB
unch
Ġ32
xL
xtra
ĠÙģÙĬ
cine
é¦ĸ
Ø§Ø´
Ġĉĉĉĉĉĉĉĉĉĉĉĉĉĉĉĉĉĉ
vert
219
FE
ends
Ġinstanceof
blur
comm
Ġ23
Ġ(!
æĹ¶
pot
SV
empty
Ġweb
303
çī¹
ãĤŃ
:$
performance
ĠFree
Pe
gamenu
Ðĺ
","","
Ġservice
ĠPoli
ĠĉĉĉĠĉĉ
cards
ãĥĭ
spec
lead
valid
gine
setTimeout
277
imer
Äħ
hich
mission
accessories
noticias
About
éķ
ãĢĭ
297
ply
nie
fluid
Ġsho
vote
ãĤĮ
gw
æ¼
ĠviewBox
æ¥
secure
Zi
Trans
MY
month
Cart
ĠĠĠĠĠĠĠĠĠĠĠĠĠĠĠĠĠĠĠĠĠĠĠĠĠĠĠĠĠĠĠĠĠĠĠĠĠĠĠĠĠĠĠĠĠĠĠĠĠĠĠĠĠĠĠĠĠĠĠĠĠĠĠĠĠĠĠĠĠĠĠĠ
actu
Ð½ÑĭÐµ
attachEvent
esp
XT
but
pati
OU
syn
calendar
="./
year
ãĢĬ
fashion
roke
look
clip
172
reviews
cele
="[
Ġ60
335
é»
Ġunder
elvetica
kk
Ġ<!--<
Pass
xh
_%
seo
lf
ender
å¼Ģ
tered
ĠLa
Comp
dmF
121
åĴ
ĠHD
æ·
Ġ{};
ĠÏĢ
ä½ĵ
bir
âĢ¬
verse
Ġ26
rp
Ġnow
abbr
required
Iy
ppe
Port
Fin
336
Ò»
unk
gY
Ġsans
ç²
asi
ĠĠĠĠĠĉĉ
(#
tar
adcast
åĲį
nm
Ġautocomplete
ima
ÛĮÙħ
KG
AU
ĠĉĉĉĉĉĉĉĉĠĉĉĉĉĉĉĉĉ
sun
lines
hape
Twitter
used
JavaScript
console
TB
Select
rb
west
345
Zj
Ġcache
Teaser
ez
IB
ification
]),
")}
addService
áŀ
progress
policy
iphone
ÛĮÚ©
çī©
lGODlhAQ
Pos
Analytics
wLj
logos
Blog
sha
....
330
slug
YWx
ĠÐ·Ð°
Vi
Ġui
amsung
don
åĻ
çģ
****************
wood
::-
ĠÐŁ
queue
Ġdu
terms
Ly
wordpress
libs
Ġam
rak
Æ·
.<
203
Ðĳ
258
browser
defineSlot
ym
ĠÂ«
Ġelement
Items
á»ĩ
Fa
355
åĽ¾
tarea
Ġclick
nology
bon
Jzc
lon
ä»¶
ster
delete
ãģĨ
xe
lvb
LS
Submit
243
ĠRes
serie
megamenu
ĠÐ¾ÑĤ
Ġĉĉĉĉĉĉĉĉĉĉĉĉĉĉĉĉĉĉĉ
ĠHo
uan
Ġxlink
Ġcustom
æı
EO
sug
tz
indows
resiz
Ġ27
Ġ\"
cing
English
simple
LT
å¤ĸ
åł±
LO
ĠUs
308
Ġvo
intro
general
ç©
poster
vate
serve
lem
ways
406
project
æĴ
æķ°
çł
iler
Ja
't
è£ħ
ral
Ġpub
innerHTML
555
ĉĉĉĉĉĉĉĉĉĉĉĉĉĉĉĉĉĉĉĉĉĉĉĉĉĉĉĉĉĉĉĉĉĉĉĉĉĉĉĉĉĉĉĉĉĉĉĉĉĉĉĉĉĉĉĉĉĉĉĉĉĉĉĉ
history
bG
wx
Ñį
ÐµÐ²
bh
JzcD
Ġher
cross
Display
\"><
Thumb
dataLayer
Origin
'"
aster
recent
Ø§Ø¦
lands
Ø¸
ining
183
æĪĲ
Ġaccount
kg
KS
hotel
Hx
Ġ;
>Ā
??
Ð¸Ð°Ð»
Ġ!==
Ð°ÑĤÑĮ
ĠVer
Help
bat
dj
bootstrap
044
VD
byline
rie
rio
male
212
Ġq
ĉĠĉ
istration
uber
gate
Vo
asket
Ð¸Ð²
done
æŁ
å§
print
Promo
Ø§ÙĤ
Slide
shortcut
Bh
mor
rolling
ãĥĸ
268
Position
ĠPorn
:;"
setAttribute
tips
BJ
åĮħ
ĠArray
mil
ront
para
ALAAAAAA
259
ords
Learn
redit
avi
hic
éĶ
287
142
1024
Book
ÙĩØ§ÛĮ
Lower
tk
lege
bx
eVar
Ġtable
131
double
315
ãĤ¨
annel
elle
":"\/
columns
è°
Â¡
enable
ĉĉĉĉĉĉĉĉĉ
rough
Ġmon
Config
ditional
Mic
pagination
ĠÎº
='#
tify
vip
Ġdefault
uest
oth
tour
kZ
éĢļ
ĠPre
Ġscroll
arcade
ĠâĢª
Ġinitial
vat
Ġri
Ġgrid
Mark
Mu
wear
667
ders
ãĥ¥
II
ags
teen
ä¸ī
Account
getAttribute
pagespeed
andy
Ġbgcolor
cars
èĲ
åĻ¨
aj
354
/></
Panel
Ġnowrap
album
Î¹Î±
Ġes
With
listing
sal
ãģĤ
save
Ġ250
ĠGu
Ð¸Ð¼
tir
ights
ç±
opinion
Ø§Ø®
TW
love
Nvb
ines
alk
pment
è©
EL
vol
lam
recommen
Ġvertical
ici
å¿ĥ
284
uck
374
XV
åı°
PU
alid
slo
ropdown
zL
cht
Document
oot
Ġ/.
AHO
xM
gm
Ġasync
ŀĭ
release
ÙĩØ§
shared
storage
camp
Ġve
289
ĠÎ±
364
ä¹ĭ
xb
anime
BAAE
yb
urance
Da
wvb
à¤Ĥ
refe
Ø§ÙĦÙħ
fieldset
pat
æ¡
ĠÑĢÐ°
cra
outline
ĠÙħÛĮ
ÑģÑı
åĨħ
Ïĩ
rf
ations
åĭķ
QQ
lation
Ġonerror
AHOO
Ay
Brand
à¦¨
×¨
////////////////
Stor
learn
compare
151
327
CN
WW
LowerCase
Ġfeature
ĠÑĩ
Ads
fre
BO
ĠCan
internal
çĥ
hid
Ve
YXJ
hile
copyright
Ġdie
premium
="{{
chooser
316
smart
rac
({'
/"></
Map
yc
usa
370
ÐµÐ½ÑĤ
Mouse
anking
Input
269
;'
Ø§ØŃ
tx
Lang
;'><
DS
FL
>|</
ĠØ¨Ø§
Slider
hm
wv
ĠCON
ican
="{
toLowerCase
entre
internet
qc
Zl
arab
emit
see
nivers
æľį
elem
Ð°Ð²
Cg
éĤ
Ġlos
Ġmar
æį
ÙĬØ±
RU
eni
Ġhere
km
">|</
ÏĨ
++){
åħĥ
åĿ
urnal
Ġres
Ð½ÑĭÐ¹
385
eno
à¯į
ring
338
Ġho
omn
223
uegos
Big
Ġbu
Ġversion
Small
nable
="../
uZ
lub
162
girl
444
Ġactive
286
TO
lect
userAgent
309
This
/","
Selector
who
Îķ
Ġfull
ĠØ²
Ġsur
Close
subject
ALAAAAAABAAE
vide
shipping
ĠĠĠĠĠĠĠĠĠĠĠĠĠĠĠĠĠĠĠĠĠĠĠĠĠĠĠĠĠĠĠĠĠĠĠĠĠĠĠĠĠĠĠĠĠĠĠĠĠĠĠĠĠĠĠĠĠĠĠĠĠĠĠĠĠĠĠĠĠĠĠĠĠĠĠĠĠĠĠĠ
ulo
ĠĉĠĠĠĠĠĠĠ
titu
rtl
ĠÐ»
manager
ĠÐĴ
dan
àµį
Ġcont
ike
oh
å¥½
åĮº
/_/
ĠÐļ
åīį
ä½ł
Live
Ġ36
surance
tus
Ø¥
cgi
question
FO
visited
clus
ĠSer
Ġ35
Ġboth
alled
Ji
à¸ļ
ĠØ§ÙĨ
xY
004
áº¡
"!==
pra
EV
tg
ĠBo
217
)}.
etter
jq
Ø³ÛĮ
ating
ĠĠĠĠĠĠĠĠĠĠĠĠĠĠĠĠĠĠĠĠĠĠĠĠĠĠĠĠĠĠĠĠĠĠĠĠĠĠĠĠĠĠĠĠĠĠĠĠĠĠĠĠĠĠĠĠĠĠĠĠĠ
Ġstar
398
Ġ'<
Ø§Ø¬
å®ļ
woo
ffer
Ġ$.
Zhb
peti
wiki
Ð¾Ð¿
ÐµÐ³
ĠMovie
Ġlocation
ÎŁ
><\/
City
ç³
finance
Tracking
ancial
éĥ¨
yy
âĢĺ
è²
278
tada
Ġenter
timi
VR
Ġbreak
results
Ġca
768
1604
="__
---
extra
ince
demand
Back
ĠQu
ĠĠĠĠĠĠĠĠĠĠĠĠĠĠĠĠĠĉ
cerpt
266
Component
cali
sep
329
Ġframeborder
tpl
ĠPage
ified
349
ampion
Popup
276
heart
widgets
BS
jm
Ġsi
ĠEr
KE
Ab
indu
separator
Iw
ĠØ§Ø³Øª
enabled
QW
placement
)+
IV
Ent
artist
:\
USAA
èį
ä¸ĩ
/><
Ã£o
cord
prevent
ä¸ª
ĠĠĠĠĠĠĉ
Ġdis
Ð¸Ð·
dv
uth
sig
una
ALAAAAAABAAEAAA
DC
days
åĮĹ
pie
What
tire
wf
ĠĉĉĉĉĉĉĠĉĉĉĉĉĉĉ
build
adi
00000000
office
åı¯
beauty
LG
every
highlight
Ġcursor
}}@
Ïį
Ġ80
231
Ġmaxlength
WT
369
ĠTop
ĠĉĉĉĉĉĉĠĉĉĉĉĉ
band
ĠTag
vailable
Ġmedium
Ø¨Ø§Ø±
Rp
dev
hh
Â¦
171
audio
]}
Ġles
lue
tali
æ¨
ira
ĠMedi
Rk
HM
aren
mobi
bst
glo
ures
ception
Js
ä¸ŃåĽ½
]]>
controls
376
ltr
áº¿
tj
flags
=[];
274
cator
Hot
Ã¼r
BT
quee
sse
ctron
gz
ØªÙĪ
token
note
ĠĠĠĠĉĉĉ
Tri
Òµ
Ġ})(
ä¸»
980
Ul
hou
","_
éļ
Ð¸ÑĤÑĮ
nis
Î£
294
Bottom
ellipsis
397
vious
spy
Ð¾Ð»ÑĮ
Vk
Ġread
Nm
How
ãĥĨ
=-
é©
){_.
193
cv
googleapis
GO
remember
keyword
Modal
lig
970
ãģł
387
ena
supports
bmJzcD
One
)/
à¸«
sso
347
sil
0631
dana
cite
âĢĵ
Yy
imp
ila
éĽĨ
<=
dW
å®Ŀ
">ãĢĲ
Ø¯Ø±
got
ards
Ø§Ø±ÛĮ
":{},"
ĠPo
kate
Î±Î¹
Yj
Ġplay
={};
141
league
adsby
20160
394
Ġother
Men
zb
Am
æĿ¥
Online
Å¼
BM
smbmJzcD
raph
genre
force
Target
NU
shoes
åĮĸ
captcha
IMG
ased
);_.
à¸Ĺ
OPTION
Ik
delivery
ditions
ĠNow
fier
ative
Loaded
Ø§Ø¡
underline
ternational
'],
æ´»
Hy
econom
zoom
QU
adsbygoogle
ÙĦÙĬ
ĠĉĉĉĉĠĉĉĉ
,,
221
half
qr
ZXJ
FD
Phone
Ġlarge
ĠĠĠĠĠĠĠĠĠĠĠĠĠĠĠĠĠĠĠĠĠĠĠĠĠĠĠĠĠĠĠĠĠĠĠĠĠĠĠĠĠĠĠĠĠĠ
Ġpa
hed
Ð¸Ñģ
SW
ãĤª
pathname
TENT
Domain
ril
ging
005
apo
Ġhelp
mount
359
mbers
Cor
acc
Ġ--><!--
throw
$('.
porno
888
faq
ington
els
Ġshape
xa
lite
Frame
iga
Ġĉĉĉĉĉĉĉĉĉĉĉĉĉĉĉĉĉĉĉĉ
579
324
address
kids
End
æ°´
alpha
akama
ÐµÐ»ÑĮ
conten
ãĥī
CON
mir
={},
396
dh
ãģ¡
just
portlet
Full
Hg
uv
advice
ingle
tial
Press
Us
chrome
ÙĪØ²
570
Change
Wrap
nounce
Ġcontainer
Ġpart
seg
utor
coming
eds
bW
kl
292
Ġopen
iso
abe
åĦ
Ġstroke
range
Æ°á»
research
ÙĦÙĪØ¯
First
--></
orange
Ð¸Ðº
è³
ÃĴ
Ġ$(".
SH
Ġlike
seria
Min
ono
ãĥ£
ĠIt
aby
Version
Your
ates
Num
301
gia
Ġselected
è¢
232
>=
GQ
Handler
çľĭ
è¦ģ
Ġ"+
FT
uten
8211
ICA
solu
ĠÛ
ãĥĥãĤ¯
ctrl
367
qus
èĢħ
poly
Business
389
åĪ©
Ġà¤ķ
Ġ'//
hj
chant
wall
geo
ipt
]><
Ã¨
390
Ġinter
Ð¾Ð¶
Ġupdate
bes
episode
ĠID
Ġcached
ebay
æ³ķ
ÙĪÛĮ
Ã¥
;:{&
Targeting
irt
referrer
preventDefault
Su
Fy
ĠÐ¿Ð¾
pZ
=""/>
nap
ãĤģ
ÐµÑĢÐ¸Ð°Ð»
DTD
373
cie
ample
Ġtheir
à¸ķ
anchor
997
uYn
UV
ĠArial
liste
glyphicon
guid
æĪ¿
alla
çīĩ
colo
strip
334
utes
Ø±Ùħ
esome
percase
.Ā
reat
RC
olf
696
irl
à¤ķ
å¼ı
Social
Ak
ranking
sitemap
iv
exec
wen
ĠĠĠĉĉĉ
imagen
ãĥķãĤ
lvbj
dion
bject
Ø§ÙĬ
trackPage
discount
opyright
fli
Ā.Ā
Templa
qb
ĠÐ¾Ð±
Vali
äº¬
insurance
è¥
Scroll
yl
pires
DO
388
Gl
Qz
368
ĠØµ
sdWU
ert
Ð¾Ð³Ð¾
Ġprice
ctions
ÙĦÙī
cula
mix
zar
Î¸
ident
ãĥĲ
Ax
242
Privacy
ska
Ġaccess
Pjx
');"><
bundle
Ø¯Ø§ÙĨ
ç¶
station
Bro
contentbox
swi
æĲ
firm
Ġph
ĠÐľ
security
jus
Je
Kw
nik
áº£
validate
tika
cycle
Cri
008
mens
Ð£
metri
nov
torrent
sos
344
BI
314
ski
åĬĽ
();"
ÎµÎ¹
ratings
=='
WD
mU
576
348
toolbar
uter
Country
nels
limit
328
furniture
clock
osh
YT
Ġload
']);">
ÙħÙĨ
Zg
jar
è§Ĩ
vk
PD
ĠDes
aler
ZuYn
ZuYnNw
ĠÑģÑĤ
Qb
rit
wr
ãĥģ
377
xia
éĵ
ookies
prise
documentElement
allen
Ġphoto
oni
CS
182
iter
render
Ġpos
vt
ä¿Ŀ
MI
third
Â¤
1080
trade
ttpRequest
slice
thumbnails
ditor
bound
sYX
software
Global
Ġsocial
nV
Ġcolumn
":[],"
Ġpanel
paper
univers
pod
Ġslide
Person
ĠNav
toString
friend
Own
çĶ·
loud
edin
eg
mad
Manager
LHttpRequest
oa
See
Enable
Ø¨Ùĩ
ĠÙĩØ§ÛĮ
Ew
mera
à¤²
Ġrequired
Anim
noticia
Row
statusicon
fz
expanded
shy
384
Control
ÑĤÐ¾
Ġgi
Poli
gation
à¸ª
depor
frontend
Ġerror
uj
åįĹ
kx
ĠÃł
journal
udent
subcategory
lifestyle
agent
favorite
magazine
rich
SK
\.
yui
ĠĠĠĠĠĠĠĠĠĠĠĠĠĠĠĠĠĠĠĠĠĠĠĠĠĠĠĠĠĠĠĠĠĠĠĠĠĠĠĠĠĠĠĠĠĠĠĠĠĠĠĠĠĠĠĠĠĠĠĠĠĠĠĠĠ
Ġaddress
clusive
bio
318
Nv
porate
divider
697
ision
){}
compo
UG
plies
bli
ĠSpe
Ys
lean
Ġinternal
rpt
Ri
ĠTube
Ġê
xin
Game
Callback
TT
jun
excerpt
adobe
ZA
cin
Ġface
>|
pagead
éĻĲ
Android
Ġafter
ãģĳ
RS
ãģķãĤ
uer
Ġonload
aries
ĠEng
ÎĻ
school
anks
inside
tinue
alo
wei
OST
session
uccess
ĠFin
007
æĬĢ
å±±
uma
Ġonmousedown
Ix
lari
è¶ħ
cw
RO
Arial
042
Location
Column
0026
legal
windows
dmFsdWU
BN
hard
Ġmt
ktop
é¡µ
293
cx
);-
0648
Ð¸ÑĢ
ĠWith
379
accor
ĠÎµ
Ġlogin
éľ
gain
]]
herit
å»
wl
beacon
textarea
}@
Ġ'.
mier
åĳĬ
åºĹ
Interval
zcz
exper
Eg
cj
develo
Ġbest
åº¦
Ġil
ĠĠĠĠĠĠĠĠĠĠĠĠĠĠĠĠĠĠĠĠĠĠĠĠĠĠĠĠĠĠĠĠĠĠĠĠĠĠĠĠĠĠĠĠĠĠĠĠĠĠĠĠĠĠĠĠĠĠĠĠĠĠĠĠĠĠĠĠĠĠĠĠĠĠĠĠĠĠĠĠĠĠĠĠ
ëĭ
lvbiB
trb
readyState
smbmJzcDsmbmJzcD
international
IJ
ä¸ĸ
Äį
Ġpi
ftware
fresh
Iz
475
ĠPer
Msg
=#
yx
tweet
>';
RF
mov
(.
à¹Į
è¥¿
ICAgICAgICAgICAgICAgICAgICAgICAg
fid
dw
Ïİ
martp
chart
646
recipes
Ph
346
ĠInter
\&
CK
Ð¸Ð´
interi
lim
505
'));
Ġgame
smo
Ā>Ā
refresh
/+
lightbox
hit
Storage
Microsoft
378
äºĮ
boy
ĠSex
859
role
zn
RD
frames
tat
aea
Jn
Net
512
JP
xlink
Ġinformation
Ø®Ø¯
ACH
UP
ison
akamai
Ya
express
;,&#
Cw
ccer
DOM
Por
ultip
clr
Ym
Cli
161
ä¸ĵ
BG
OwnProperty
313
ãĥĩ
386
yd
eye
motor
Ġcatch
ei
:(
åŁİ
pv
pick
çĽ®
ä¹Ĳ
cq
tracker
disqus
Ġmen
Ru
Ø¦
UD
Pic
Nh
="{&
325
æĹ¥æľ¬
420
urch
Ø§ÙĨÛĮ
æĺŁ
æ¬¾
girls
Ġbut
english
Ðĵ
960
uly
OV
uM
oice
lastpost
éĿ¢
trackPageview
flat
nn
zx
abi
ĠÎ¼
="/?
Ġindex
extend
AG
343
omniture
ØªÛĮ
å¹¿
bug
________
Best
ĠStart
550
Ġarial
bang
ZE
æĢ§
organ
HVl
Pages
è´Ń
Black
atest
ç§ĳ
Î¤
ĠCode
engine
ĠSho
prefetch
sharer
468
1200
="&#
1600
Ġscrolling
å½±
ffic
unes
RM
´ì
Ġwho
âĢ¢
æ¶
dns
ĠMon
ä»·
è¡¨
åĴĮ
$.
rey
callback
èı
Kf
Ð¸ÑģÑĤ
shows
Exp
ĠAndroid
ween
wdGlvbj
0646
Ġje
åĪ°
jor
information
patible
Ð°Ñģ
ĠĉĠĠĠĠĠĠĠĠ
adget
(_
ccc
ĠÐ½Ðµ
ä¸º
linkedin
scrol
Ġsome
malink
Ð¾Ð·
440
Products
319
charset
ZC
ride
eq
production
åĥı
rive
Ø¯ÛĮ
hasOwnProperty
ĠOr
mob
æĪı
Level
ZV
à¹ģ
ming
="";
ç¥ŀ
ç¦
sales
æĺİ
/-/
DX
tpage
lywood
orth
ĠĠĠĠĠĠĠĠĠĠĠĠĠĠĠĠĠĠĠĠĠĠĠĠĠĠĠĠĠĠĠĠĠĠĠĠĠĠĠĠĠĠĠĠĠĠĠĠĠĠĠĠĠĠĠĠĠĠĠĠĠĠĠĠĠĠĠĠĠĠĠĠĠĠĠĠĠĠĠĠĠĠĠĠĠĠĠĠĠĠĠĠĠĠĠĠĠĠĠĠĠĠĠĠĠĠĠĠĠĠĠĠĠĠĠĠĠĠĠĠĠĠĠĠĠĠĠĠĠĠĠĠĠĠĠĠĠĠĠĠĠĠĠĠĠĠĠĠĠĠĠĠĠĠĠĠĠĠĠĠĠĠĠĠĠĠĠĠĠĠĠĠĠĠĠĠĠĠĠĠĠĠĠĠĠĠĠĠĠĠĠĠĠĠĠĠĠĠĠĠĠĠĠĠĠĠĠĠĠĠĠĠĠĠĠĠĠĠĠĠĠĠĠĠĠĠĠĠĠĠĠĠĠĠĠĠĠĠĠĠĠĠĠĠĠĠĠĠĠĠĠĠĠĠĠĠĠĠĠĠĠĠĠĠĠĠĠĠĠĠĠĠĠĠĠĠĠĠĠĠĠĠĠĠĠĠĠĠĠĠĠĠĠĠĠĠĠĠĠĠĠĠĠĠĠĠĠĠĠĠĠĠĠĠĠĠĠĠĠĠĠĠĠĠĠĠĠĠĠĠĠĠĠĠĠĠĠĠĠĠĠĠĠĠĠĠĠĠĠĠĠĠĠĠĠĠĠĠĠĠĠĠĠĠĠĠĠĠĠĠĠĠĠĠĠĠĠĠĠĠĠĠĠĠĠĠĠĠĠĠĠĠĠĠĠĠĠĠĠĠĠĠĠĠĠĠĠĠĠĠĠĠĠĠĠĠĠĠĠĠĠĠĠĠĠĠĠĠĠĠĠĠĠĠĠĠĠĠĠĠĠĠĠĠĠĠĠĠĠĠĠĠĠĠĠĠĠĠĠĠĠĠĠĠĠĠĠĠĠĠĠĠĠĠĠĠĠĠĠĠĠĠĠĠĠĠĠĠĠĠĠĠĠĠĠĠĠĠĠĠĠĠĠĠĠĠĠĠĠĠĠĠĠĠĠĠĠĠĠĠĠĠĠĠĠĠĠĠĠĠĠĠĠĠĠĠĠĠĠĠĠĠĠĠĠĠĠĠĠĠĠĠĠĠĠĠĠĠĠĠĠĠĠĠĠĠĠĠĠĠĠĠĠĠĠĠĠĠĠĠĠĠĠĠĠĠĠĠĠĠĠĠĠĠĠĠĠĠĠĠĠĠĠĠĠĠĠĠĠĠĠĠĠĠĠĠĠĠĠĠĠĠĠĠĠĠĠĠĠĠĠĠĠĠĠĠĠĠĠĠĠĠĠĠĠĠĠĠĠĠĠĠĠĠĠĠĠĠĠĠĠĠĠĠĠĠĠĠĠĠĠĠĠĠĠĠĠĠĠĠĠĠĠĠĠĠĠĠĠĠĠĠĠĠĠĠĠĠĠĠĠĠĠĠĠĠĠĠĠĠĠĠĠĠĠĠĠĠĠĠĠĠĠĠĠĠĠĠĠĠĠĠĠĠĠĠĠĠĠĠĠĠĠĠĠĠĠĠĠĠĠĠĠĠĠĠĠĠĠĠĠĠĠĠĠĠĠĠĠĠĠĠĠĠĠĠĠĠĠĠĠĠĠĠĠĠĠĠĠĠĠĠĠĠĠĠĠĠĠĠĠĠĠĠĠĠĠĠĠĠĠĠĠĠĠĠĠĠĠĠĠĠĠĠĠĠĠĠĠĠĠĠĠĠĠĠĠĠĠĠĠĠĠĠĠĠĠĠĠĠĠĠĠĠĠĠĠĠĠĠĠĠĠĠĠĠĠĠĠĠĠĠĠĠĠĠĠĠĠĠĠĠĠĠĠĠĠĠĠĠĠĠĠĠĠĠĠĠĠĠĠĠĠĠĠĠĠĠĠĠĠĠĠĠĠĠĠĠĠĠĠĠĠĠĠĠĠĠĠĠĠĠĠĠĠĠĠĠĠĠĠĠĠĠĠĠĠĠĠĠĠĠĠĠĠĠĠĠĠĠĠĠĠĠĠĠĠĠĠĠĠĠĠĠĠĠĠĠĠĠĠĠĠĠĠĠĠĠĠĠĠĠĠĠĠĠĠĠĠĠĠĠĠĠĠĠĠĠĠĠĠĠĠĠĠĠĠĠĠĠĠĠĠĠ
å·ŀ
nw
det
à¥ĭ
yre
tice
hai
Ġ""
Ã©s
prefix
zhi
.">
scar
vari
ĠĉĠĉĠĉ
ĠØ±ÙĪ
181
ruit
dies
works
ĠOf
åĽŀ
998
Ġ150
>:
åĬ¡
$(".
312
ABA
302
040
)"><
bun
landscape
SC
hq
NCg
å¹³
ĠÐł
éģĵ
Ġtri
Rating
zr
staur
Ġhead
'/>
publi
å¨
ĠPa
iro
tual
Ġ}}
575
linfo
Sho
request
fg
gaze
teri
gou
273
Char
tery
Ð½Ð°
Ġ800
Ka
wm
Ġden
fession
sticky
åĸ
NL
imum
è±
Ġ("
366
191
1111
SG
Ġhover
=[],
Ke
Ġvideos
pdf
Ġ29
-[
ĠĉĉĉĠĠĠ
Context
Uy
844
ĠĉĉĉĉĉĉĉĉĉĠĉĉĉĉĉĉĉĉĉ
Ġglyphicon
Ã¡s
272
>[
vZ
Ġhis
317
route
animate
ç³»
mask
liance
âĢĶ
ä»£
Window
ĠÐ´Ð»Ñı
Headline
}};
same
éĹ¨
pn
ĠSa
Movie
ĠÑĦ
From
zj
Ġ__
SM
ĠĠĠĠĠĠĠĠĠĠĠĠĠĠĠĠĠĠĠĠĠĠĠĠĠĠĠĠĠĠĠĠĠĠĠĠĠĠĠĠĠĠĠĠĠĠĠĠĠĠĠĠĠĠĠĠĠĠĠĠĠĠĠĠĠĠĠĠĠĠĠĠĠĠĠĠĠĠĠĠĠĠĠĠĠĠĠĠĠĠĠĠ
IX
656
DIV
ÐµÐ·
sell
à¸Ħ
reset
%);
ĠServices
vertise
Ġpassword
bran
bian
DM
éĴ
digitalspy
zhu
))}
RL
gbar
caret
Â«
Ġworld
æľŁ
750
direction
whats
645
Find
\/","
arr
åı¸
"}.
river
648
Table
605
nodeType
ĠĉĉĉĉĉĠĉĉĉĉ
misc
ĠĠĠĠĠĠĠĠĠĠĠĠĠĠĠĠĠĠĠĠĠĠĠĠĠĠĠĠĠĠĠĠĠĠĠĠĠĠĠĠĠĠĠĠĠĠĠĠĠĠĠĠĠĠ
Ġparent
Description
zw
ĠPe
Ġfav
dered
990
ÐµÐ½Ð¸Ñı
ZhbHVl
Sk
EX
358
timing
qw
rdf
}),
ÅĽ
ĠJo
ĠĠĠĠĠĠĠĠĠĠĠĠĠĠĠĠĠĠĠĠĠĠĠĠĠĠĠĠĠĠĠĠĠĠĠĠĠĠĠĠĠĠĠĠĠĠĠĠĠĠĠĠĠĠĠĠĠĠĠĠĠĠĠĠĠĠĠĠĠ
ÏģÎ¿
Î·ÏĤ
UF
audi
ÑĩÐµ
ET
Ġ"></
Yp
song
any
tains
VV
Ġgroup
Pay
Ġback
2011
">Ö
,{
ums
mento
XQ
ãĤ¦
mvpd
Ġcoords
ĠSite
nQ
depart
ĠØ§ÙĦØ¹
feedback
vac
four
hub
dfp
sj
ĠProduct
fili
ĠBEG
iger
652
offers
JJ
ãģĹãģ¦
ento
èµ·
Ġhentry
sts
lum
Ġcookie
AY
æĪĺ
ãģ£ãģ¦
take
ÑĥÑĤ
Ġuna
Ġwhat
nbc
ĠBEGIN
cope
651
à¤¸
tree
ĠVideos
disp
||!
à¤¤
Ġ400
VB
bie
ÙĨÚ¯
arios
ĠTwitter
XMLHttpRequest
'}
irts
addthis
ann
326
Ko
ĠAir
ĠMi
PP
ugu
broadcast
èµĦ
ØªÙĩ
endor
canon
ury
Ġperson
Ġmake
invest
STA
encodeURIComponent
kla
ĠĉĉĠĠĠĠĠĠĠ
relic
dator
Ur
Vud
ãĥĬ
Ġwhen
Dom
éĢŁ
mel
activity
///
beta
ÑĥÑĢ
ĠPhoto
GFu
Ga
Ġsprite
Fk
Ġselect
006
339
banners
;)
èĭ±
ĠPolicy
ĠĠĠĠĠĠĠĠĠĠĠĠĉ
respond
asa
HL
statechange
Card
074
ï¼ģ</
spect
=&#
kat
="/"
zione
tection
ille
Ġke
ãĥ³ãĥĪ
Ġpoli
çķĮ
Ġie
pare
isi
Fs
ret
àª¾
readystatechange
rack
åĶ
LP
||[
canvas
ãĥĥãĥĪ
aid
vesti
ĠĉĉĉĉĉĠĉĉĉĉĉĉ
inh
çº¿
comic
pps
notification
åħ³
Ġlas
creen
]],
ĠPr
ĠBar
Ġnumber
Ln
bay
vv
0628
collections
VG
ducation
Ġmay
ĠØ§ÙĦØ£
espn
Ġsign
Last
that
wdGlvbiB
iran
ĠGA
æ¸¸æĪı
Ú©Ø³
ZuYnNwOy
%{
Services
ĠonMouse
æķĻ
utsch
æ©
010
à¦¬
ãģĹãģŁ
æĸĻ
Ġ'&
bus
uli
jan
tickets
jk
leader
Ð½Ð°Ñı
ization
wal
gdmFsdWU
homa
nation
Company
Mg
ĠSTA
649
newrelic
rain
tho
ĠMath
ĠGe
hipping
Ġass
Flag
ĠAmer
Terms
fancy
tml
ĠEuro
dest
centered
ĠĠĠĠĠĠĠĠĠĠĠĠĠĠĠĠĠĠĠĠĠĠĠĠĠĠĠĠĠĠĠĠĠĠĠĠĠĠĠĠĠĠĠĠĠĠĠĠĠĠ
ÏģÎ±
Vz
inPlace
shift
Ġalf
created
questions
Settings
ember
à¦ķ
jane
ĠYAHOO
Sto
zie
wk
å¢
uring
technology
ĠContent
mai
ĠSans
å²
çĭ
oung
çŁ¥
slides
ĠCONTENT
262
lida
three
Ġbeen
Enabled
Txt
Fl
Tool
yk
479
eek
EW
mbr
Fd
Obj
Ġcase
Ġchange
Tech
ÙħÛĮ
Line
æ»
timer
794
Ġposts
banking
SO
yal
è®¡
step
setTargeting
YP
verification
åı£
Av
pisode
)"></
]},{"
ç»ı
ĠĊ
rap
ĠĉĠĠĠĠĠĠĠĠĠĠĠ
obao
ĠBy
accordion
serialinfo
xc
outh
Ġstr
%;"></
ority
TOP
æĤ
0430
entity
Ġ45
ç«Ļ
plbefore
arrowimplbefore
uted
Ready
Ġfix
fbq
IHZhbHVl
È«
Ġthan
Order
845
EP
jg
jr
æº
>-
è¨ĺ
LDA
574
æŀľ
Ø¯Ùĩ
thers
Ġ500
fen
855
Qs
ciones
çľŁ
coupon
918
éł
hellip
Ġinclu
Tou
hos
hao
650
çĥŃ
Uh
ZGF
SL
goog
çĲĥ
ern
inf
Ġcard
tistics
ZGl
aliz
ãģ¿
mous
Active
jh
Air
Â®
647
idad
Ġblog
Buy
655
Ġ38
limg
Ġmost
tination
(?
Options
vm
Ġhttps
Ġ70
Ø¯Ø§ÙĨÙĦÙĪØ¯
Ġhow
Ġrespon
hair
Module
cDo
modern
TER
Ġnavbar
power
477
rows
buil
oro
marquee
ĠPlay
promotion
ÐµÐ½Ð¸Ðµ
laz
onerror
è»
gon
illion
Val
wish
Ø·ÙĤ
ĠOne
ligh
ä»¥
Euro
oku
displayName
aya
Ā"Ā
Plus
ĠName
211
fol
appy
Che
ÙĢ
Ġbig
Ġglobal
çı
Update
Ġ1000
ÃĲÅ
ĴÃĲ
KX
Ġteaser
\"\
ampa
kn
yen
251
Ed
kur
fire
pool
ãģĻãĤĭ
Template
"){
644
á»ĳ
ãĥł
TX
uman
pet
ĠWorld
robot
PlaceHolder
ãģķ
amazonaws
iw
Ġstory
ä¼ł
tique
Gx
onclick
need
DQoJ
culture
ely
èī²
ĠĠĠĠĠĉĉĉ
Ġpath
WM
road
PM
">$
ific
Ġexper
plore
è®¾
Ġ95
660
yt
à¦¤
cDovL
ÑģÐµÑĢÐ¸Ð°Ð»
æİ¨
ĠÙħÙĪ
ï¿
isa
ĠPlease
ãĤ£
conversion
avings
Respon
shots
-\
ĠĉĉĠĠĠĠĠĠĠĠĠĠĠĠĠĠĠĠ
445
YY
ellow
Uz
ĠĉĉĉĉĉĉĉĉĠĉĉĉĉĉĉĉĉĉĠĉĉĉĉĉĉĉĉĠĉĉĉĉĉĉĉĉĉĠĉĉĉĉĉĉĉĉĠĉĉĉĉĉĉĉĉĉĠĉĉĉĉĉĉĉĉĠĉĉĉĉĉĉĉĉĉ
%{-
ubermenu
omi
appe
BAQE
HomePage
Status
multimedia
ÂłÃĳ
"));
conds
ĠReg
009
Ġanim
dress
igital
contrib
categor
ĠĠĠĠĉĉĉĉ
effect
liber
ê¸
Sale
sharing
GET
politics
Ġentry
tract
ĠLi
ĠRa
members
ticker
Ġ"-
æĦı
creative
æŃ£
hf
ĠĠĠĠĠĠĠĠĠĠĠĠĠĠĠĠĠĠĠĠĠĉ
Br
Ġalert
676
éŃ
à¹Ħ
Ġlocal
testi
Ġ600
aving
Ð°Ð·
anced
','','
ÃŃa
teo
weet
332
ungen
Ġevery
Ø¯ÛĮØ¯
ãĥĳ
america
tails
chin
Ġtransition
ç²¾
disney
EQ
ãĤº
854
Published
xhc
Ġâ
Organ
ĠShop
454
241
Comments
2010
Report
lux
miss
inci
ĠĠĠĠĠĠĠĠĠĠĠĠĠĠĠĠĠĠĠĠĠĠĠĠĠĠĠĠĠĠĠĠĠĠĠĠĠĠĠĠĠĠĠĠĠĠĠĠĠĠĠ
875
Ġfile
gx
aro
ç¨ĭ
HK
tad
ĠSearch
what
jbGF
ĠØ±Ø§
Sports
à¦²
éĥ½
Ø®Ø¯Ø§Ùħ
mR
'+'
Ġcf
æł¼
Day
icn
Ġwebsite
ĠPost
995
keyframes
>&#
ĠBu
forms
ZR
Ġ...</
jn
´ë
notice
Sport
buzz
èģĶ
Í¼
Ġodd
0281
Ã½
Ø§Ø²ÛĮ
Zv
oll
gree
Ġ('
>/
ĠSub
course
ido
ãĥ¼ãĥĪ
848
Op
Za
NY
è§£
Ġallow
Other
ÑĥÐ´
ç¤¾
ston
Ġms
ÙĬÙĦ
ĠĠĉĉĉĉĉĉĉĉĉ
507
IK
hostname
pril
ĠØ¥
ĠAdd
Cl
nia
galeri
Ġsk
War
anta
åľº
udents
xk
æĻĤ
ĠImage
Ð°Ð»ÑĮ
Â¥
674
Ġest
("<
blick
Ġforum
canonical
578
322
à¤®
payment
Hotels
IO
Nr
777
pageview
577
Events
raw
yin
Â§
ĠÑĢÐµ
Fj
èº
TL
abc
ĠĠĠĠĠĠĠĉ
ØªØµ
tron
ĠPM
ford
gas
Public
dil
rakuten
Ø±Ùģ
ĠOut
autocomplete
Next
ãĤĪ
Bi
KL
education
509
Ġlook
æĬ¥
juegos
Hover
Ġcategories
anh
vu
jump
},{&
ÐĽ
Ux
elf
bas
459
á»Ļ
rat
ĠVi
Ø§Øµ
Tile
çİ°
readonly
807
à¤¯
æĶ¶
506
tL
ĠĉĉĉĉĉĉĉĉĉĉĠĉĉĉĉĉĉĉĉĉĉ
NwYW
gori
åĲĮ
pictures
ĠÏĥÏĦ
Ġflag
Ġinfo
solutions
NN
anger
ĠStar
Ok
Featured
RSS
Ġsecond
/',
basket
Language
);"><
Ġbrowser
Base
Ð¤
ticket
ooks
ALAAAAAABAAEAAAIC
ĠGet
ãĥĵ
806
lance
955
ĠÐĶ
Life
mw
File
crumb
}}"
Details
æ£
Ã¼n
Ġkey
ãĥ§
Ð°Ð´
ĠØ·
istan
æĹħ
tivo
496
demo
Ġfjs
ĠWar
åİŁ
wu
Test
ĠMy
Ø±ÛĮÙĨ
ĠĠĠĠĠĠĠĠĠĠĠĠĠĠĠĠĠĠĠĠĠĠĠĠĠĠĠĠĠĠĠĠĠĠĠĠĠĠĠĠĠĠĠĠĠĠĠĠĠĠĠĠĠĠĠ
sam
Ġ44
huff
Qy
282
Register
Ġside
393
ä»Ĭ
ĠÐ¸Ð·
Guid
Hidden
Ui
Ġ]]>
402
ĠAt
Fb
Yr
Passwd
mh
992
RW
FFF
BLIC
åħ¬åı¸
aven
onreadystatechange
poll
fox
Desktop
hicle
ql
where
261
vdW
342
494
ãģ¤
0435
ĠWatch
Ġdomain
è½½
Ġ75
ĠÑį
plafter
arrowimplafter
ĠÏĥ
283
bao
--><!--
wers
Ġhours
sab
}._
ĠĠĠĠĠĉĉĉĉ
Ġsupport
%;">
1469
ĠĉĉĠĉĉĠĉĉĠĉĉ
jbGFzcz
ĠGo
progra
phones
é¢ĺ
clothing
sYXNz
())
æ¢
Mf
nos
323
Health
()"
ĠFi
ZSB
published
TC
+</
nam
RR
ÑĤÐ°
wz
ih
dec
Ġwork
Ġ$('
çİĭ
ĠError
ĠPart
'){
Ġfb
åı·
?'
èĹ
UC
andyroid
Ġà´
grade
clean
include
Es
ĠGames
Ġein
Äĩ
ims
oper
nz
thor
ĉĉĉĉĉĉĉĉĉĉĉ
ais
Ġmit
èĬ±
ando
thes
Ġxt
dizi
tak
etc
Ð¾Ñĩ
lbl
ãĥ¼ãĤ¹
Compatible
Ġellipsis
otal
Ñĸ
MX
aca
gala
Ġí
Ġusing
Ġtranslate
Iv
Dr
263
ØªÙħ
620
Follow
áº¥
SY
1464
tif
_"
Ġfr
yimg
ãĤĦ
Ġmi
åħī
udo
å©
Ġer
lq
================================
éĸĭ
########
Ġtxt
enta
jj
Server
456
665
channels
Vu
ç·
fotos
474
å¸ĥ
é£Ł
mal
xw
Ġ"//
/=
çĦ¡
gold
ondon
Î¯Î±
tifi
Ġfieldset
Ha
Ðķ
495
Ġshould
dar
provider
utils
Ġits
Db
ãģĭãĤī
å®¢
COM
ê°
352
Hotel
Ġnavigation
imo
ÑĢÐµÐ´
ï½Ĺï½Ĺï½Ĺï½Ĺ
}</
hotels
ZuYnNwOyZuYnNwOy
847
INE
Cb
1010
aki
éķ¿
Îł
tek
aux
fort
cmp
Ġbusiness
Ret
Ġ="
331
">-
çĽ´
Mer
bull
Ġday
ulta
ĠEmail
quire
å±ķ
sumer
Ġlogo
bam
sty
litary
668
ĠØ³Ø§ÙĦ
LX
nM
imple
HI
Arrow
Ġ64
ĠGame
AX
CRIP
timeout
bem
Wi
808
ĠĠĠĠĠĠĠĠĠĠĠĠĠĠĠĠĠĠĠĠĠĠĠĠĠĠĠĠĠĠĠĠĠĠĠĠĠĠĠĠĠĠĠĠĠĠĠĠĠĠĠĠĠĠĠĠĠĠĠĠĠĠĠĠĠĠĠĠĠĠĠĠĠĠĠĠĠĠĠĠĠĠĠĠĠĠĠĠ
Ġtool
"});
utter
Ai
FQ
rule
did
ĠPar
wD
was
996
LB
ĠDown
allo
="/~
Ġ"@
608
ãģ£ãģŁ
ĠÙĥ
055
mension
woff
809
;|
Gi
yon
gio
ä½į
Exception
everything
Ġinto
Ø´ÙĨ
Rhd
bate
Ġnext
tf
414
Zp
ÑģÐºÐ¸Ð¹
":"//
ãĢĤ</
sored
Ġà®
Cre
sian
ĠÄ°
iPhone
method
ills
516
ĠSystem
expand
ìł
TN
_Ā
sic
']=
èº«
ĠTer
Ġhigh
futbol
ãĥŁ
mation
Ġdays
372
eee
generic
MDA
ĠLife
Ø§ÙĨÙĩ
mote
Red
ĠĉĠĠĉ
lst
Ġvi
AJ
Center
bia
IGNsYXNz
cancel
áºŃ
éĩį
styled
Only
Ġneed
ç©º
uick
locali
anal
508
å£«
408
faces
Travel
Ġbanner
è¯Ħ
onto
BAQ
ÑĢÐ°Ð²
ĠDis
sas
\-
Player
hz
Ġclose
sx
vendor
Ġscript
670
Vt
goto
Les
701
041
ĠØ§Ùħ
scrollTop
cad
sar
Mc
elect
;_
nolog
models
oz
Qi
=["
UU
443
737
Ce
PO
846
points
Resource
485
likes
mazon
elcome
craft
trip
uts
0629
icid
answer
\\\\
lady
Parent
erman
ĠDay
nid
0438
library
affili
æļ
beh
Ġred
sku
vl
IDx
ÑĢÑĭ
]&&
ìĹ
begin
Offset
Ø·ÙĤØ³
Rate
çīĮ
xf
actor
à¸°
PI
1280
Ali
Nk
picker
Ġremove
Ġfade
ĠÐĲ
pas
seller
ssi
Windows
åŀĭ
678
,[
scene
Ã¡n
akamaihd
éª
Ġ[[
srcset
Profile
709
Úĺ
why
tino
Foto
(//
ãĤ»
ural
ĠShow
||_.
cret
netd
scha
Qw
Jj
PW
ago
qz
çĪ±
isting
449
zcGFu
Ãªn
æĬķ
éĽ»
047
é¦ĸé¡µ
Jk
çĻ»
677
æ°ĳ
acional
ships
tier
ssen
Î·Î½
netdna
HER
announce
625
grow
adbl
Ġpay
Tube
eneral
lev
ils
ĠBlack
Wa
sns
uw
lider
ĠĉĉĉĠ
0639
athli
æĴŃ
ãĥĿ
tect
Ø§Ú©
<!--[
NCE
ĠÚĨ
675
escape
Ð¼Ð°
ctronics
Ø§Ø³ØªØ®Ø¯Ø§Ùħ
ìŀ
Ø§Ø·
composed
titulo
321
Sy
ÐĹ
Ġcollapse
nick
bullet
Ġsec
Mw
ĠÐĿ
AAAAAAAAAAAAAAAAAAAAAAAAAAAAAAAA
ĠMobile
409
849
407
stores
NV
Ġnh
MENT
Women
REF
Ø¬Ùħ
ãģĪ
metro
ÐµÑģÑĤ
ĠManager
à¸¸
rui
additional
payments
dog
ĠÐ²Ñĭ
United
éŁ³
tec
lent
roman
ĠBusiness
æ³¨
]*
+/
Gh
witch
Ste
ĠHTML
?_
ĠØ§ÙĦØ³
concat
attribute
demandware
èħ
precomposed
,["
JPG
XF
corner
341
"+"
rv
cated
ety
ÙĬÙĪ
Ê±
877
498
Ou
interiors
Î±Î½
stand
åįİ
cons
ĠâĢľ
POST
Ġsta
è¿Ļ
zs
zion
ĠAM
ources
larÄ±
nex
ÙĦØ§Ùħ
well
GoogleAnalytics
ĠĠĠĠĠĠĠĠĠĠĠĠĠĠĠĠĠĠĠĠĉ
___
ĠSie
Ġ2014
Function
att
ĠsetTimeout
oy
Ġmanual
635
IQ
æĹł
ette
private
ãģ©
ĠMark
ĉĉĉĉĉĉĉĉĉĉ
ĠPlus
uff
){}}
acter
()},
14836
Ġjust
Ġavailable
271
mast
joy
MAX
testimon
à¸¹
609
mundo
å¾®
berg
ÏīÎ½
aff
Source
jum
tte
447
Care
KK
{'
kc
2017
VIE
Feed
pression
oacute
ĠĉĠĠĠĠĉ
made
ĠMedia
ãģªãģĦ
ĠAccessories
TU
<Ā
TG
ĠJava
NB
Second
ØŃÙħ
)});
Multi
åĪ¶
Overlay
è¼
sof
ï¿¥
Yi
'))
Die
World
045
Tran
pedia
jer
Ġci
Ø²Ø§Ø±
Ġdropdown
logged
[\
IGHT
Ġ(-
Ġshop
lad
visit
Ele
è¦ĭ
laimer
353
Ġĉĉĉĉĉĉĉĉĉĉĉĉĉĉĉĉĉĉĉĉĉ
womens
ä¸ľ
MH
Cc
ĠEl
Focus
},&
ĠÐĳ
identifier
hg
Inner
ced
012
rench
zing
Ġ'#
sin
ĠCity
Animation
CU
RG
="ãĢĲ
Ġcomp
pure
webapp
428
Ġ255
IDE
Ú¯Ø§Ùĩ
lGODlhAQABA
newby
Ġche
athlitika
forumdisplay
Ġpeople
camera
636
Super
houseinteriors
newbyhouseinteriors
åıĭ
Ġdownload
ĠPU
Hel
Np
Screen
finite
Yq
Sites
microsoft
Fu
uIHZhbHVl
lasses
drfront
Special
process
party
Forum
Ġlong
659
lian
Ġleaf
Helvetica
nas
france
JSON
$/
ravel
tput
science
selida
hZ
Fly
ering
ĠUSAA
Â¨
Ġpres
ĠSte
909
Story
gel
nat
selection
GTM
birth
Create
æ©Ł
mato
446
Hi
qs
)","
695
rum
topnav
fem
final
Ġhand
Zx
ãģĽ
Ġold
metrics
ĠØ¨Ø±Ø§ÛĮ
'">
Drop
ĠCenter
Ġmonth
Cy
Jz
lover
cked
trim
ĠØ§Ø±
adas
';"
Ġwhich
Kz
ĠĠĠĠĠĠĠĠĠĠĠĠĠĠĠĠĠĠĠĠĠĠĠĠĠĠĠĠĠĠĠĠĠĠĠĠĠĠĠĠĠĠĠĠĠĠĠĠĠĠĠĠĠĠĠĠĠĠĠĠĠĠĠĠĠĠĠĠĠĠĠĠĠĠĠĠĠĠĠĠĠĠĠĠĠ
Ġitems
Ġico
äº¤
loor
ĠOff
fillText
fect
897
champion
substr
scu
tish
Ġ"#
ĠCor
protoselida
yor
desig
oe
015
Ġflex
Ĭ¤
swiper
ĠSp
Ky
rg
ploy
MW
lien
756
kYX
AW
ose
èŃ
niversity
ERS
hdr
è·¯
MV
568
Ġbi
visor
æĽ´å¤ļ
eW
woocommerce
ĠInsurance
"};
MG
ĠFil
owl
çĮ
434
shot
ÑĤÐ¸
graphy
ĠØ§ÛĮÙĨ
NW
uppercase
,\
raz
nx
atri
Transform
HH
dist
mise
à¹Ĥ
nba
Ea
FS
Ġpour
057
ICK
Latest
Ġfind
Sec
æµģ
nin
Â¶
1607
å®ŀ
53727
lists
Ġzu
rek
sci
hack
TAu
ssa
asing
bread
ĠĠĠĠĉĉĉĉĉĉ
Jt
679
è¡£
emi
840
itu
419
$('
èİ
regular
reve
063
Ġ%>
risti
æ¬¡
ĠTran
Xz
unds
six
Zz
å¤ı
Îļ
æ¹
estival
(["
Ġdoes
livedoor
Categories
Ġmod
ìĦ
878
åĦ¿
(&#
aria
351
Ġmb
dimension
stage
blockquote
èĦ
898
NR
ampaign
know
520
Ġol
Popular
ĠTa
ixel
7777
UY
Ð½ÑĭÑħ
mint
868
ÑĭÐµ
rip
460
iden
\">\
lÄ±
martphone
908
resp
tao
ĠĉĠĠĠĠĠĠĠĠĠĠĠĠĠĠĠ
package
Ġ._
Uk
Ġlu
ece
åŃ£
CP
ĠĉĉĉĉĠ
native
wri
Ft
Has
dad
ists
Ah
ĠĠĠĠĠĉĉĉĉĉĉ
voice
æĦŁ
ĠTime
CRIPT
}}.
ĠĠĠĠĠĠĠĠĠĠĉ
aku
Ġlive
optimi
Ġmiddle
Sum
task
887
Validation
gran
dic
nment
ĠÃ©
Â©
checkout
Assets
Bw
ĠĉĉĠĠ
464
zip
otor
Ġ31
keys
Ġpromo
åħ·
Ġpass
ãĤ¬
NCgkJ
ĠØ§ÛĮØ±Ø§ÙĨ
brity
||{
ÑĥÐ¿
³</
ĠØ¹ÙĦÙī
kle
%=
refox
riv
ĠMin
panese
à¦®
ĠAccount
046
Ġnon
429
..."
Not
DR
night
ancy
jian
Hide
Î±ÏĦ
Light
ĠĉĉĉĉĉĠ
burger
55356
ĠTech
yp
&&_.
ODU
Ġthey
Ø§ÛĮÛĮ
ÎµÏĤ
ÙĪØ¨
slick
ĠĠĠĠĠĠĠĠĠĠĠĠĠĠĠĠĠĠĠĠĠĠĠĠĠĠĠĠĠĠĠĠĠĠĠĠĠĠĠĠĠĠĠĠĠĠĠĠĠĠĠĠĠĠĠĠĠĠĠĠĠĠĠĠĠĠĠĠĠĠĠĠĠĠĠĠĠ
tirement
isten
DL
×ľ
Ġsex
3000
åŃĹ
994
Ā:
896
ALL
parseInt
qt
åį¡
ãģĿ
æ¯Ķ
Offi
bid
æıĲ
ĠĉĉĠĠĠĠĠĠĠĠ
ÆĴÃĲ
Ajax
PK
dg
ÃĲÆĴÃĲ
ä¸İ
é¥
Ø¨Ø§ÙĦ
392
ÑĬ
gift
timg
Ġproducts
Ġter
arance
å¡
("/
Ġsee
çİ©
0001
lGODlhAQAB
ĠInc
conf
äºİ
çº§
mz
ãĥ³ãĤ°
hw
QC
ables
Fix
056
culator
ĠĉĠĠ
vita
476
buh
beat
ized
riend
Fr
Zone
dx
478
cinema
drive
hate
Ġobj
publisher
Vs
ational
858
363
IGNsYXNzPSJ
opup
cats
ìĭ
ĠJS
Ju
MDE
olx
",["
658
Ġrepeat
Ġ['
ĠÙĪØ§ÙĦ
Qx
pager
.&
Ġoptions
ĠNet
054
ortg
754
é¢ĳ
013
Dw
Css
Ġblack
tops
allenge
AI
Ġ["
editorial
2222
978
Ġbegin
879
recommend
Ġmessage
parentId
Float
lich
886
removeEventListener
;\
FG
ALUE
Ġregion
Ð¸Ñħ
å°ĳ
QB
overview
403
keyCode
aHR
jy
High
Ġdf
ĠOffi
çĿ
é¾
ĠĠĠĠĠĠĉĉ
è´¹
Fz
Ð´Ð°
Ġvon
4444
Td
rr
ãĢİ
Om
ä¹Ī
889
vertising
ÙĩØ±
672
then
Ms
ĠHer
çĻ¾
yandex
.$_
Ġparse
Flash
vars
acher
Ġ).
æ¸ħ
ãģ¾ãģĻ
Met
Ġvia
vor
æĶ¾
Fore
ĠÐ¢
wave
}}</
åĲİ
JG
ĠAu
previous
Mac
tac
éĩĮ
Yw
Yx
tut
olutions
oto
unded
067
Yn
muni
corporate
Colorstr
subscription
lng
Ġoriginal
050
ãĤ·ãĥ§
italic
SSL
legend
imagenes
Ġorder
Ġvalid
aciÃ³n
Dy
Âº
cfm
fancybox
jack
"}],"
ä¸ĸçķĮ
XC
874
Ġdirection
adu
tives
654
Ġ48
stone
material
vey
rez
rown
msapplication
Types
Ġknow
idx
ingtonpost
disco
448
ĠÎ³
icht
515
Ġcontract
Mx
504
WP
Art
)&
uge
ciÃ³n
ÙĦØ¨
lifeevents
ote
Ġconsole
oggle
JB
){"
categoryId
ãĢı
è¿Ľ
Ġmatch
ORT
422
311
cacheid
Rs
698
sizes
VC
lista
updated
refix
ĠFull
572
hua
é£İ
ually
Ġdon
arth
imi
å¸Ī
Blue
OX
Ġgames
his
ITE
åįķ
Side
ÑģÐµ
Ġgu
åĩ»
req
497
Call
Æ¡
Ġà¤¸
bnR
Ġgads
856
669
XXXXXXXX
Ð»ÑĮ
666666
Mm
Ð¸Ð»ÑĮ
sections
nv
screenshots
bour
resizable
bill
adult
ĠÅ
Pk
ãĤ¤ãĥĪ
Spry
taW
;|&
Ġbuy
ĠÙħØ¹
Ġvs
ĠYa
ĠSch
ê³
#?
Wl
ĠBlog
Real
ĠGar
×Ķ
ÑģÑĤÑĮ
+-
ĠĉĠĠĠĠĠĠĠĠĠĠĠĠĠĠĠĠĠĠĠ
datePublished
cies
lec
anda
ella
Î²
recipe
-/
ubar
foaf
1003
ĠĠĉĉĉĉĉĉĉĉĉĉ
ãĥĥãĥĹ
ĠĠĠĠĠĠĠĠĠĠĠĠĠĠĠĠĠĠĠĠĠĠĠĠĠĠĠĠĠĠĠĠĠĠĠĠĠĠĠĠĠĠĠĠĠĠĠĠĠĠĠĠĠĠĠĠĠĠĠĠĠĠĠĠĠĠĠĠĠĠĠĠĠĠĠĠĠĠĠĠĠ
tty
FI
Ø§ÙħÙĩ
sbox
ĠSu
371
alaxy
caps
plain
arm
registration
Upload
iet
ÙģÙĬ
Ġtracking
spaÃ±
sugges
np
ceive
Ġincre
æīĭæľº
Ġrun
players
venue
taobao
755
Si
dC
ÂĲ
"</
455
alen
Uti
Ġ33
ogp
afety
]&&(
liga
booking
DT
à¦¸
à®¿
ule
wpe
NP
hold
å°±
895
(\
Yo
Ġ''
resolution
ÑĢÐ°Ð½
ĠSTART
ãĥ¼ãĥ«
MF
aacute
)||(
Gk
è®º
362
nth
çĻº
bilder
Ā_Ā
diy
record
ÛĮØª
415
-",
dified
Va
popover
4787
gbqfb
WN
Ġref
hon
Our
lazada
hip
rait
ĠÐ¶
Ry
spinner
folio
portada
micro
filters
ĠÚ©ÙĨ
bei
ustra
Ez
+(
Bs
ught
Ġ72
ifest
ĠCategory
ä¸ĭè½½
801
Ð§
meteo
æ±Ł
sponsor
gender
brid
charAt
Ġmega
rend
($(
Ġmodule
382
çĽ¸
affiliate
8221
BAEK
ãĥķ
.",
åĳ¨
Ġoutline
æģ¯
ĠPUBLIC
rsrc
Access
forgot
cab
Grid
KR
Ø´ÛĮ
Ġagain
Ġpopup
flight
{\"
Î¡
510
Sans
tico
à¸Ľ
'},
±Û
Ġpla
ĠSet
dealnews
æ¼«
å¾Ĺ
nton
irls
inherit
1575
æīĵ
evar
ales
wire
reme
Desc
à´¿
20160425
æĥ³
Current
LU
bv
unstyled
946
Rpb
KY
Ġauf
ĠĉĉĉĠĠĠĠĠĠĠ
ĠÐµ
frm
LV
416
subforum
693
éĢī
049
å®¹
ê¸°
parts
BAEAAAA
ĠĉĠĠĠĠ
ÙģØ±
Jv
Ġste
048
073
361
ĠLive
welry
bags
ÐŁÑĢ
ÐµÐ¶
gat
spo
scrollable
051
Layout
EAOw
');</
fang
ä½ķ
pul
idi
501
åħį
rica
otre
Ġsf
rites
cG
à¤¹
hui
Ġ})
law
ĠIndia
disable
Zn
Ġlife
&Ā
names
çĻ½
Save
Mv
]){
Ġuk
Ql
ĠĠĠĠĠĠĠĠĠĠĠĠĠĠĠĠĠĠĠĠĠĠĠĠĠĠĠĠĠĠĠĠĠĠĠĠĠĠĠĠĠĠĠĠĠĠĠĠĠĠĠĠĠĠĠĠĠĠĠĠĠĠ
ç´¢
googletagmanager
Cd
<Ā/Ā
Ð¿Ð»
bnr
ç®¡
Ġà°
058
HS
ashion
qm
8220
Ġ//]]>
ÎĹ
458
Cache
Ġmust
analog
tmall
Ġum
Ġfun
éĸĵ
KA
Ġcms
QT
803
dou
||[]).
samsung
"],["
kaXY
èĤ²
Ø¹Ø¯
({"
Ã¬
IW
Short
Ø±Ø³
Î¿Î½
sla
soccer
Ġpane
cookies
petition
940
14628
Ð¾Ð´Ð°
owner
Fc
ĠEnter
uel
deportes
ĠDE
ĠÐŀ
Fv
partners
Fn
loop
Â¹
Dm
MR
Ġthem
å¦Ĥ
auti
Ġservices
kie
ë¡
ÙĪØ§ÙĨ
èĢĥ
kel
");</
Ġundefined
qf
Gar
variant
430
bild
Ġtwo
atel
izle
MTk
ç¢
corp
ĠEvent
nodeName
kYXRh
VA
Hh
Ā=Ā"Ā
,\"
Ġgb
Don
enc
legacy
TAEAOw
reply
Uw
Ġcho
ALAAAAAABAAEAAAICTAEAOw
Ze
ÎĿ
liz
downloads
latform
ĠĉĉĉĉĉĉĉĉĠĉĉĉĉĉĉĉ
ears
ÑĤÐµÑĢ
Vl
dtd
çĸ
959
Param
dept
ÎµÏģ
Oc
careers
FP
rocket
æĬĺ
Qm
living
WVud
FJ
ssy
Init
AAEALAAAAAABAAEAAAICTAEAOw
gk
ĠĉĉĠĠĠĠĠĠĠĠĠĠĠ
"))
tification
551
++++
uru
ãĥ¼ãĥī
é¤
!/
424
KCQkJ
lower
Ġcreate
ĠĉĉĠĠĉĉ
Ð¼Ð¾ÑĤ
413
controller
ticia
alicdn
rar
ĠĉĠĠĠĠĠ
VER
talk
Ġou
Cr
Ġcover
à²
stro
383
Ġinte
ĠÚ©Ùĩ
,(
çĶ»åĥı
>>
Loading
hv
management
è¯ķ
Qo
Word
ĠSale
Cal
ĠAuto
Now
Ġcu
ãĤĥ
>|<
iacute
Empty
eri
767
ength
å»º
Hd
ĠSign
Ġlatest
Client
Vj
Ð²Ð°
onder
statistics
prime
wwLj
Ġ((
Ġ//-->
anews
gq
ĠĠĠĠĠĠĠĠĠĠĠĠĠĠĠĠĠĠĠĠĠĠĠĠĠĠĠĠĠĠĠĠĠĠĠĠĠĠĠĠĠĠĠĠĠĠĠĠĠĠĠĠĠĠĠĠĠĠĠ
added
bike
Clear
Jc
ĠCare
directory
ipad
Ġka
repor
8230
Ġescape
gmo
ticias
Mt
asia
wpb
EngName
Ġubermenu
drag
HN
Ġ"-//
FW
fitness
435
Ġson
RhdGE
hab
umbers
querySelector
lGODlhAQABAAAA
/&
BAEKAAEALAAAAAABAAEAAAICTAEAOw
lek
Cp
Apple
wedding
FOR
ĠØ§Ùģ
metadata
destination
Vh
ì§
Ġ',
Ġfollow
mouseover
viron
()).
åĪĽ
tout
ĠÐ¸Ð½
Ġnum
ä»ĸ
åİ¿
install
qe
="/_
kf
åľĭ
Ġdown
ĠĠĠĠĠĠĠĠĠĠĠĠĠĠĠĠĠĠĠĠĠĠĠĠĠĠĠĠĠĠĠĠĠĠĠĠĠĠĠĠĠĠĠĠĠĠĠĠĠĠĠĠĠĠĠĠĠĠ
Pgo
opera
Ġfeed
BW
5555
--------------------------------
×ª
boxes
876
Ø´Ø±
Unit
Ãµ
robots
bag
ZZ
bbuh
manifest
Ġchild
Ġfilter
pak
Params
Ġba
èĢģ
778
spr
nen
âĸ
bove
1395
SQ
Sch
rave
]|
sina
ĠĠĠĠĠĠĠĠĠĠĠĠĠĠĠĠĠĠĠĠĠĠĠĠĠĉ
prd
ctlbbuh
708
Attr
lGODlhAQABAI
ĠĠĠĠĠĠĠĠĠĠĠĠĠĠĠĠĠĠĠĠĠĠĠĠĠĠĠĠĠĠĠĠĠĠĠĠĠĠĠĠĠĠĠĠĠĠĠĠĠĠĠĠĠĠĠĠĠĠĠĠĠĠĠĠĠĠĠĠĠĠĠĠĠ
suggest
ãĥ¢
water
lGODlhAQABAAAAACH
HRw
Accessories
ç«ĭ
Ā&Ā
Loader
jin
ãĤı
graphics
á»ĭ
DY
Ï·
ĠĉĉĉĉĉĉĉĉĉĉĉĠĉĉĉĉĉĉĉĉĉĉĉ
Tit
","+
æĸ¯
categoria
uu
lei
yregb
Ġtu
äºĶ
alendar
zf
],["
ĠÎł
moto
391
Src
skip
"}},"
å¿«
Fun
558
yH
bbon
ĠInternet
Ã¶r
Ġcountry
426
race
ram
ãĥį
Ġ768
075
kv
å¥ĩ
ç¼
Sun
Ut
Ñ§
reco
yat
geek
:%
802
éĩı
cias
radient
åł´
ĠÏĦÎ¿Ïħ
><![
Ev
ÙĨÛĮ
2008
à¥ģ
fab
grafi
979
Vars
Max
425
ĠâĢĶ
chool
inger
Kr
é©¬
rama
ÏĢÎ¿
Ġ{'
clone
qj
blocks
attle
ÑĨÐ¸Ñı
Channel
AH
lee
ÑĥÑĩ
á»ĥ
Ben
town
hbm
ÙĦØ³
598
ĠIf
blem
2009
NCi
ect
aker
Today
marke
ÑģÐºÐ°Ñı
omni
ĠĉĉĉĉĠĠĠ
Ð½Ð¾Ð¹
reference
dol
ĠClick
Ġcomment
å§ĭ
à«ĩ
çĨ
